node {
  name: "x"
  op: "Placeholder"
  attr {
    key: "dtype"
    value {
      type: DT_FLOAT
    }
  }
  attr {
    key: "shape"
    value {
      shape {
        dim {
          size: -1
        }
        dim {
          size: 100
        }
        dim {
          size: 9
        }
      }
    }
  }
}
node {
  name: "unused_control_flow_input"
  op: "Placeholder"
  attr {
    key: "dtype"
    value {
      type: DT_INT32
    }
  }
  attr {
    key: "shape"
    value {
      shape {
      }
    }
  }
}
node {
  name: "sequential/lstm_1/PartitionedCall/while/enter/_19"
  op: "Enter"
  input: "sequential/lstm_1/PartitionedCall/strided_slice"
  attr {
    key: "T"
    value {
      type: DT_INT32
    }
  }
  attr {
    key: "frame_name"
    value {
      s: "sequential/lstm_1/PartitionedCall/while"
    }
  }
  attr {
    key: "is_constant"
    value {
      b: false
    }
  }
  attr {
    key: "parallel_iterations"
    value {
      i: 32
    }
  }
}
node {
  name: "unused_control_flow_input_1"
  op: "Placeholder"
  attr {
    key: "dtype"
    value {
      type: DT_INT32
    }
  }
  attr {
    key: "shape"
    value {
      shape {
        unknown_rank: true
      }
    }
  }
}
node {
  name: "unused_control_flow_input_2"
  op: "Placeholder"
  attr {
    key: "dtype"
    value {
      type: DT_BOOL
    }
  }
  attr {
    key: "shape"
    value {
      shape {
      }
    }
  }
}
node {
  name: "sequential/lstm_1/PartitionedCall/while/sequential/lstm_1/PartitionedCall/strided_slice_switch/_42"
  op: "Switch"
  input: "sequential/lstm_1/PartitionedCall/while/merge/_30"
  input: "sequential/lstm_1/PartitionedCall/while/LoopCond/_35"
  attr {
    key: "T"
    value {
      type: DT_INT32
    }
  }
}
node {
  name: "Func/sequential/lstm_1/PartitionedCall/while/body/_12/input/_91"
  op: "Identity"
  input: "sequential/lstm_1/PartitionedCall/while/sequential/lstm_1/PartitionedCall/strided_slice_switch/_42:1"
  input: "^Func/sequential/lstm_1/PartitionedCall/while/body/_12/input_control_node/_84"
  attr {
    key: "T"
    value {
      type: DT_INT32
    }
  }
}
node {
  name: "Func/sequential/lstm_1/PartitionedCall/while/body/_12/output/_102"
  op: "Identity"
  input: "Func/sequential/lstm_1/PartitionedCall/while/body/_12/input/_91"
  attr {
    key: "T"
    value {
      type: DT_INT32
    }
  }
}
node {
  name: "sequential/lstm_1/PartitionedCall/while/next_iteration/_66"
  op: "NextIteration"
  input: "Func/sequential/lstm_1/PartitionedCall/while/body/_12/output/_102"
  input: "^Func/sequential/lstm_1/PartitionedCall/while/body/_12/output_control_node/_107"
  attr {
    key: "T"
    value {
      type: DT_INT32
    }
  }
}
node {
  name: "sequential/lstm_1/PartitionedCall/while/merge/_30"
  op: "Merge"
  input: "sequential/lstm_1/PartitionedCall/while/enter/_19"
  input: "sequential/lstm_1/PartitionedCall/while/next_iteration/_66"
  attr {
    key: "N"
    value {
      i: 2
    }
  }
  attr {
    key: "T"
    value {
      type: DT_INT32
    }
  }
}
node {
  name: "unused_control_flow_input_3"
  op: "Placeholder"
  attr {
    key: "dtype"
    value {
      type: DT_FLOAT
    }
  }
  attr {
    key: "shape"
    value {
      shape {
        dim {
          size: -1
        }
        dim {
          size: -1
        }
      }
    }
  }
}
node {
  name: "sequential/lstm_1/PartitionedCall/while/body/_12/while/Sigmoid_1"
  op: "Sigmoid"
  input: "sequential/lstm_1/PartitionedCall/while/body/_12/while/split:1"
  attr {
    key: "T"
    value {
      type: DT_FLOAT
    }
  }
}
node {
  name: "sequential/lstm_1/zeros_1/packed/1"
  op: "Const"
  attr {
    key: "dtype"
    value {
      type: DT_INT32
    }
  }
  attr {
    key: "value"
    value {
      tensor {
        dtype: DT_INT32
        tensor_shape {
        }
        int_val: 32
      }
    }
  }
}
node {
  name: "unused_control_flow_input_4"
  op: "Placeholder"
  attr {
    key: "dtype"
    value {
      type: DT_INT32
    }
  }
  attr {
    key: "shape"
    value {
      shape {
      }
    }
  }
}
node {
  name: "sequential/lstm_1/zeros_1/packed"
  op: "Pack"
  input: "sequential/lstm_1/strided_slice"
  input: "sequential/lstm_1/zeros_1/packed/1"
  attr {
    key: "N"
    value {
      i: 2
    }
  }
  attr {
    key: "T"
    value {
      type: DT_INT32
    }
  }
  attr {
    key: "axis"
    value {
      i: 0
    }
  }
}
node {
  name: "sequential/lstm_1/zeros_1/Const"
  op: "Const"
  attr {
    key: "dtype"
    value {
      type: DT_FLOAT
    }
  }
  attr {
    key: "value"
    value {
      tensor {
        dtype: DT_FLOAT
        tensor_shape {
        }
        float_val: 0.0
      }
    }
  }
}
node {
  name: "sequential/lstm_1/zeros_1"
  op: "Fill"
  input: "sequential/lstm_1/zeros_1/packed"
  input: "sequential/lstm_1/zeros_1/Const"
  attr {
    key: "T"
    value {
      type: DT_FLOAT
    }
  }
  attr {
    key: "index_type"
    value {
      type: DT_INT32
    }
  }
}
node {
  name: "Func/sequential/lstm_1/PartitionedCall/input/_2"
  op: "Identity"
  input: "sequential/lstm_1/zeros_1"
  attr {
    key: "T"
    value {
      type: DT_FLOAT
    }
  }
}
node {
  name: "sequential/lstm_1/PartitionedCall/while/enter/_18"
  op: "Enter"
  input: "Func/sequential/lstm_1/PartitionedCall/input/_2"
  attr {
    key: "T"
    value {
      type: DT_FLOAT
    }
  }
  attr {
    key: "frame_name"
    value {
      s: "sequential/lstm_1/PartitionedCall/while"
    }
  }
  attr {
    key: "is_constant"
    value {
      b: false
    }
  }
  attr {
    key: "parallel_iterations"
    value {
      i: 32
    }
  }
}
node {
  name: "unused_control_flow_input_5"
  op: "Placeholder"
  attr {
    key: "dtype"
    value {
      type: DT_FLOAT
    }
  }
  attr {
    key: "shape"
    value {
      shape {
        unknown_rank: true
      }
    }
  }
}
node {
  name: "sequential/lstm_1/PartitionedCall/while/body/_12/while/Identity_5"
  op: "Identity"
  input: "sequential/lstm_1/PartitionedCall/while/body/_12/while/add_1"
  attr {
    key: "T"
    value {
      type: DT_FLOAT
    }
  }
}
node {
  name: "Func/sequential/lstm_1/PartitionedCall/while/body/_12/output/_101"
  op: "Identity"
  input: "sequential/lstm_1/PartitionedCall/while/body/_12/while/Identity_5"
  attr {
    key: "T"
    value {
      type: DT_FLOAT
    }
  }
}
node {
  name: "sequential/lstm_1/PartitionedCall/while/next_iteration/_65"
  op: "NextIteration"
  input: "Func/sequential/lstm_1/PartitionedCall/while/body/_12/output/_101"
  input: "^Func/sequential/lstm_1/PartitionedCall/while/body/_12/output_control_node/_107"
  attr {
    key: "T"
    value {
      type: DT_FLOAT
    }
  }
}
node {
  name: "sequential/lstm_1/PartitionedCall/while/merge/_29"
  op: "Merge"
  input: "sequential/lstm_1/PartitionedCall/while/enter/_18"
  input: "sequential/lstm_1/PartitionedCall/while/next_iteration/_65"
  attr {
    key: "N"
    value {
      i: 2
    }
  }
  attr {
    key: "T"
    value {
      type: DT_FLOAT
    }
  }
}
node {
  name: "unused_control_flow_input_6"
  op: "Placeholder"
  attr {
    key: "dtype"
    value {
      type: DT_BOOL
    }
  }
  attr {
    key: "shape"
    value {
      shape {
      }
    }
  }
}
node {
  name: "sequential/lstm_1/PartitionedCall/while/Func/sequential/lstm_1/PartitionedCall/input/_2_switch/_41"
  op: "Switch"
  input: "sequential/lstm_1/PartitionedCall/while/merge/_29"
  input: "sequential/lstm_1/PartitionedCall/while/LoopCond/_35"
  attr {
    key: "T"
    value {
      type: DT_FLOAT
    }
  }
}
node {
  name: "Func/sequential/lstm_1/PartitionedCall/while/body/_12/input/_90"
  op: "Identity"
  input: "sequential/lstm_1/PartitionedCall/while/Func/sequential/lstm_1/PartitionedCall/input/_2_switch/_41:1"
  input: "^Func/sequential/lstm_1/PartitionedCall/while/body/_12/input_control_node/_84"
  attr {
    key: "T"
    value {
      type: DT_FLOAT
    }
  }
}
node {
  name: "sequential/lstm_1/PartitionedCall/while/body/_12/while/mul"
  op: "Mul"
  input: "sequential/lstm_1/PartitionedCall/while/body/_12/while/Sigmoid_1"
  input: "Func/sequential/lstm_1/PartitionedCall/while/body/_12/input/_90"
  attr {
    key: "T"
    value {
      type: DT_FLOAT
    }
  }
}
node {
  name: "unused_control_flow_input_7"
  op: "Placeholder"
  attr {
    key: "dtype"
    value {
      type: DT_FLOAT
    }
  }
  attr {
    key: "shape"
    value {
      shape {
        dim {
          size: -1
        }
        dim {
          size: -1
        }
      }
    }
  }
}
node {
  name: "sequential/lstm_1/PartitionedCall/while/body/_12/while/Sigmoid"
  op: "Sigmoid"
  input: "sequential/lstm_1/PartitionedCall/while/body/_12/while/split"
  attr {
    key: "T"
    value {
      type: DT_FLOAT
    }
  }
}
node {
  name: "unused_control_flow_input_8"
  op: "Placeholder"
  attr {
    key: "dtype"
    value {
      type: DT_FLOAT
    }
  }
  attr {
    key: "shape"
    value {
      shape {
        dim {
          size: -1
        }
        dim {
          size: -1
        }
      }
    }
  }
}
node {
  name: "sequential/lstm_1/PartitionedCall/while/body/_12/while/Tanh"
  op: "Tanh"
  input: "sequential/lstm_1/PartitionedCall/while/body/_12/while/split:2"
  attr {
    key: "T"
    value {
      type: DT_FLOAT
    }
  }
}
node {
  name: "sequential/lstm_1/PartitionedCall/while/body/_12/while/mul_1"
  op: "Mul"
  input: "sequential/lstm_1/PartitionedCall/while/body/_12/while/Sigmoid"
  input: "sequential/lstm_1/PartitionedCall/while/body/_12/while/Tanh"
  attr {
    key: "T"
    value {
      type: DT_FLOAT
    }
  }
}
node {
  name: "sequential/lstm_1/PartitionedCall/while/body/_12/while/add_1"
  op: "AddV2"
  input: "sequential/lstm_1/PartitionedCall/while/body/_12/while/mul"
  input: "sequential/lstm_1/PartitionedCall/while/body/_12/while/mul_1"
  attr {
    key: "T"
    value {
      type: DT_FLOAT
    }
  }
}
node {
  name: "sequential/lstm_1/Read_1/ReadVariableOp/resource"
  op: "Const"
  attr {
    key: "dtype"
    value {
      type: DT_FLOAT
    }
  }
  attr {
    key: "value"
    value {
      tensor {
        dtype: DT_FLOAT
        tensor_shape {
          dim {
            size: 32
          }
          dim {
            size: 128
          }
        }
        tensor_content: "\311\010\224\275\325\213\301<\203\312\021\276\034=+\276\362i%\276\332\236\024>ew\202\276\323De\276\006J\231\2750\321\020<\321S\026>\310AV\276H\261#>\262]4\275\222\006Q=\226\371\n\276\326\373\305=\033\276\001\276&\217\246>\366\210\225\274@N\264<\200\332\206<\255\355j\275W\004\256=n9\373\275\373\010\362\274Wg\002=\375\264\336=S+u\276\\0b>\345\\\025>\217\035\255\274\335\n\200\275\2326\213=\037\032\351\275\305\000\257\274\252\000u\276q\350B>\303R\007\276\020)\020=\216\013\021=\274\350\367<\336\343U=e\316\010\276\314\016\017\276\3559\201\276\373\353\244\275\032j\035=$D\300\275\240X\004\275\263\025\253=\010\305\241\275\261\037\004\276\366/\215\274\261\337\251\275iA\010\273\n\027\005=\'\001Z>\261\003\263\275\024\230\001=\240\275\202\275|\322j\273\262S\r=\357b\331<\021\364=>g\001\t\276_\233\214=\270if>\222\207\307=\nn\022\276\224D\354<*D\207=\357\020\210\275\255W\'\275z4\004=@D\272=\033\345\301=;\332D>w\354\007=5\\\201\273\243\022\256\275:e\026\276.\317?\273\234>z=\210\317\211\274\3645\330;\346\352\"\275\306\236S<\023$\001>\245\357L>\257\331\013\276;\205n<\241\324\242\275V\243\027\275\236zO>\336hf=`\366j=RUY>U\366\034\275\230\235\226\274\227\213t\275\352(\017\276\315l\014=\305\343\3738A]S<\3472:\275\240{V\276wM==$\3010\276\233\335\010\276z.\376\273j\026d=\301z2\275\3420[=y$\310\274z\377\020>\246\315h\275\'\204\\=T\262\342=\357\030\324=0\326\203=m\212\351=NgH\275\177\005\301\274\266!\303=\241E7<{\305\025=q\201\374\275\026u\332\273\230=P\274k[\316=\314M\251\275\204\226\237;8\2472:^\257\375\275\020\013\335\275\3207\222\274\243yX\276\247P><\313\203\301;\230\356I\274(vI\276\307\326\205\275j\266\025\276G{<\276\323\001\357\275\205$\272=\376\330D=\250\223\375\275\370q\247\275\234!\273\275\024\226P<\311k\322\272\235#\311\275B\305\356=\257\321l=\335\300\013>gt\375\275\302\341\327\275*\023\357\275$\321G\275\303\247\335\275|-\034>\313\261\215\276xH\0369\255\333\270\274\256\351J\275\216C\202;\266\372\216\275k\234\307\275n\311E\275mG\223=\204\200\211\276\275\340D=0\350\341\275F\341\037>\220\001@\276/\007\030\275\336\300\351=\203\267\027=\301\214\321\273\312t\274;\211\204\205\275\377\240\312\275A(\301=\366\210b;W\020h=\245\202C\275\363gw\274J\t\222\274\347\343\343=\020p\010\276M\215\014\276\032!\345\275\031\357\\;\t\222\227<ui\243=\017\233\022=_X\346<Ga\256;\010\001\313\275\343R\021\2760\223\221;\263\333\314\275S\376\246\275\323\320f=\242f\250<6\370\016\275\274\376\356\275\013\243\313\274\'\320\301\274x\033\017>k^\027\276[\027\216<\246+\254<\263\354\377\274a\215\213\276\2245\377=gS\n\276\323\226\363\275\322\224>>\340\024\217=\203Q\243\274\254\221\000=\212\363\327\275\020\"!\276\235\312]\2751\253\260\274]\037\272\275\201\212\325\274F\273\013\276\235*\345\275\202q\341\275r\033\032=d\325\236\274Y\306\346\274\\\216\303\274t\355X\275e\2778>\346\354\250\275\225\004Y\275\230\340\323=Q\032\210=\234\177K\276\375\217\010\275\360\325l\274\244\326U\274\274fp\276\351m<<<\037\343\275b\221\006\275\215\013\345=\312\033\030\276\354\207m\276\252\242\013\276\245l\354\274}\035\274\275\0064->\257S\001>\360\202\366=\002.\366=\316u7<<\247t>\033#\202\275n\265\270=3\rm>.\353\252\275\267\371n>%\215\n>\246\340\004>\0221\217<%X\021>\352\222\317\275c\016\307<\235\'\372:\225jo>5\234\216\274\2420\005>\242^\306>\326P\214<K\325\205=\205\t\223<\301t)>\000\262\351\275\200\373[<~Z\323\274\211\262\r>\212o\350\275\263\276\371=\275p`=x\017`\274\311\301#>\341\376\212=\n\004\023>\224j\213>\020\240n=\337\000\323=\340\263\311=\337\270r\275\3061\005>?eY>\301\013\003=\356\244X\276Fj/>\273\007\264=\323Q\356=\307\363\367=\305&\023\276\243\037\227=\266\275\265\275\320\236G<\243 \331\275\315\342\t\276&\335X=\033\"\233=\223]\227\276\'w\344\275\344\0058\275\377\365\257=\301\225\025=eX\010<\372j\036>g\020\351=/I7=]\364\372\274f\277\214<)gU\275\311.\256\274\353\317\367\275\255@R\275\277X\375\275\315\312\362=\333\005\032\276\2505-<]\352\252\274\243J\270<\014\326^=(\014\213<b\032\n\276Sq\312\275&K\026\276\327X\014\276\376S\221=N\237\331\274%\033\352<aF,\2753\225~\276i<x\275n\253\020>\371\270\373=\025\243\373<(\324\254\275\341\020\340=T\346\207\275\207\336\341=\272m\305\275!x\210=\333\321K\275_G@>U9P=\\->\275;\025[=I\304\027\276\007DG>>\254\202>\330,\357\274s\266\020\276\022%\\>\252\010\311=E\244\'>\"\304\357\273,\214\003>\302 \321=\36373>\261\006\034>\245\371m=\303\302F\276\211\227\022\275\321T\013>\2073\000\276q1\306=\332\204\345\274\n\343\316\275\230\017\230:=\006u\276\305\032\314=\264p\000>\'\277)\274\231\013\005>\260\244\331=\222cF>\263\205\240\275&~)>\033\360\257\274\2538\037>\273\177\010\276%`\251\275V\363\262<\256\024\237=\030\265\004\275p\314`>\217\200\006> \'\376=\347\215i\276a^@=\211f\236\272\267\317==\360\036a>\214\006e\275\037\234\253\275\330\016p\274\300\252\270=k\254\201\275z\332\214\276\245\364\207=\243\364\237\274D\246\204\275\367b\366<\032\315\002>t~t\275\360\26477$;\366\274R\260\303=\316*@\276\322\231\204>\341\356\203=\033,?\276\264\356\031>\352\256\327\275Bt+\275C\241\225\276m\372\207=\036Vk=\205c\212=\254Q\332=\370\325\311\274n\367#>\327\257\021\274\203\004M\2754\366\000>\274\344\375\273`<\036>\027t[\275\213@j=\376\315I\276\344\000\356\275|\301\270\275\354>\246\274\343\305\265\271\316\025\372<\212#0\276|\250o\274ru.<}\276%\275\300\363\235<\177\006\235=\314\006\202:\312\215\013>\347w\215>H\256\030\276dZ/=`\024\325\274\231nF=\327\336L>`\032\250\275%\304]\274P\005\252\275\030}\272=\325\232\207=L\024\215=\342\003`=\034\nL\275\211O/<\247\214\300=\370\202\033\276/\235`>\264\t0<\303zd\275\231G\306\275\241\203F\275i\321A\275>\325W>Q\t\236=\333\251M=3\201\355=\254\023o\275xE\271=m5\360<nD\341=nF\036=\277t>>\373\325`\273\240\253(\275\234g\315\274\343?\030\2768\254\217\275\001\364\316=l\314*>\237H7=\027W\035\276\231\325\000>B\321\331\275a\332$=6X\232=De\001;\233\214&\273y\021\361=\260Z\002\276\323\251\302\275\345\265H>X\321@\276N2\272\275d@\224=\243\031\255\271Z\253\277\276\315\024\204\275f@!\275\302@\236\275\362\335\275\276A\347\262=C\273\320\276m\353i\276\025\017\211=\275\262\360=\276t\241\274\340\204\316=~\363O=@\263\313\275a\013\002\276F\257\020\2765\263\013>\021\342\215\276\210\253i\275\322\006N\275\253\320\216<\215\260\343\274\347ZS= \227f=\333\257y\276\373\274%\275$i\346=\346*\210=\316\274\031\275A3\360\273(\016v\275Vg\353\274E\003!\276T2\206\274I\277?\274\335\r\002\2753zx\2758\322\023>\235\357\017\276\333\025T<\277C\205>\201\025\216\275;\211\240\275:\353\235;2}\201>\206\357}\2765oE\274\250-2\276\210\250\004>\327\356\023\276\031FN\276\004E/\276\340[\212\275\251\360\364\273\357\333\254\275L\345\300=@\317\350\275\300Uf\276i\025D>w\021(>/.?\276\212!H>\353\367C\2756\213\236\275\210G<=\014x&\276\370\006\203\275)\033\365<}\210\322<\306\341\016\275\346\275A>x$.\276\334j\275;g]\254=^\342d\275\225\0327\276H\254I=\256t_>\350jA\275a\035\026\275R\242\370\271\376\365q\274\213\256D=\304\034\222=G\310:\275\214\236f>L%\250\274\030G\273\274\220\221\000\276\254\335\'>j\362\265<\010\3518\276@\334J\275%Z\214\275j\343\275\275)\004\253\2743v \276[S\r\275\016\2436\276ls,>\202\253e\276\346y1\276\361\'m\276\232\036f\276\356\362`\274*\335\242={\255\231\276,\307\025>\347\027\214>\261\347\232\276\\\217\336\275\034\353#\276\362\204\214=\236\272\215\276O\230\346=F\2209\275\212\243n\275\365zn\275\2761N=\352C\020=p\323\205\276\236\341?\275u\020\272<\246\343s\274\363\220\252\276\371\3367\273F\353\014\275\267\340\257=H\3047\2764\241,\274.\216j\275\221\307\223\276\372N\266\274\026\226K=\266<\302\274\014\354\326\275\017:\010\275\264\0172>\316\353\237=\260\243l\274\207\344\311=uT=>\304Y\301\274\274a\234\275(\014\302=\226^\353=\216:\250\275\270\331-\274\002\230\014\275\211\223\361\275\220/0\276T\270\001\275\360\214\344<\\\2253=\211\357$\275\t7\241\274\031\366B\276Uy\214=\230\370\370=O\214\274\275\347b\273\275SK7\274\341M\363\275\356\226A>D\242\341<a\002\342;\306G\335\274\222\337~<\212J\023>\355\321f;\014Y\254\275C\355n\276)\333\244=\023\264\014>\247\030n\2756\342\263=<\207\244=H\373K=\234\347\346<\353\354\'\274\2540\266\275U\354\274=N}w\276t\274\017\274\201\032w\275Qr\226=\343\246\316=\206\253\330\274Fn\364<\"\377\264=0\354\336\275w(\221\275\315\014\002\2759u&\276\261q\255<f9\014\275\32596>T\252\007\2765\217\277\275\3021\264=\177X.\275\372\354\001>\200\226\205\275\221@\354\275\315\003\026>\322\300\315;\267\300\232\275\217\236d\275\244L\270\274\360\324\025=0\224\251\275\263h\207=\332\013M>\300\317\021\276\264\351\370=\324>j\275C\364\366\274\347\036F\276\234A\013\275\316?7\274\310I\317<\005\233\314=\225\315\241\274\361\243J=\270%\377\274e\301\250\273\310\356\353\272\365\3648>\025\225\213\275\327\231\215=\300\037\210\275\320\302)\2762}\266<^\247\214===*\276\363\357r=%\225\021>\241\312\360\275\356\010%\276\264\311\351<;\260\322<\tW.\275\024\255\234<\202\300\371\275|!d\275\3473\201=g\255\327\275JZ\'<\313\013\221\275\213\032$\275\026\213\214=U\247\000>>\324\273\275\274\223l\2759\250\t>(\214\225\276T8\226\275\225\032\226\275\214\221;\276\031z\224=L`\201>\241\240\262=I\214\261=\312\310k\276\035\214&\276\204k\031\274\306\306\251<\331\305:>_\026\373<[Q\225=_S\222\2757\212\275=\021\235\241\275\037Y\302=s\326\234\275M\276_\276\331\r\323<]\246m\275q\020\337;:\221\364=\353\025\326\275\201\336\231\275\364z\313=|.8\275S\254\264\275V`\346;^d\371\274\302\362)\276\347t\365\274\243\353\027>\331>]\274\371u\301=\304&\226\275v\025\023>\204\356\277\275\034M\334\274\270\341\004>\340\220c=+w\341\274\246!6\275\311\321\241=\010z\313\275G1\336\274\211\3428>\211\212\013>X\312\022>\277\257i\275Z\335\343<\236I\261\274\021\t_\275o\360\001>\2258\021>4\2249\276\271j\207=\301\353+>I\314(\274\361\035\261<\375d#>6\3249=\2276\014\275\252\2756=/\024\366<\350b%\275U\237\001> \255P\276\231@`\275EZ\353<\r9O\273\313\317\035=Rk\302==MO\276\337\372\'=\030}\\=a\342\026>\367I^<\277\336P=\242\020\216=\332 \277=\210<\212\275\007\347\336\275\307Ay=\330\256\344\275Bk\246=\221R\261\275E\3124>f\351\007>\263&\241\275\250\3026=\003\307!>\262{q\274\255\224\035>\327\216t\276\302R\211=#^\342<\272\007d=\'\205\n>\316\006\365<\244\305\205=\376\005\257=\343\251\331\275\324\212\202>B)\305=-7V\275q\3357\275\342\301\334=\201\262\307\275\361P\014\276\337\035A<H\274\233=\222qS\2748\365\352\275\322\351\315=\001|\334=\027\236B\276\373\320!=XV*\276%\341\233\275\255\241\250\274\353\374+\276\322\230\261<#\003\263\275f|\322<~\221\261=6\212\210=\204(\303\275D\361\315\273\214:\030\276\376Si=\217\023P>\205\313o\275\330\003R\274l\255\226\274\031\343r>\250t=\274\244\303g\273a\025\203\275}\035\035\276\241\0238\276\262\016A>8\261\331\275\2168@\276/\235\246<\026\3767>\240\266\360\274\276u-\276\021s\256=\330\334\242=\036\320\022\276\272\032\363;L\013\304<\310\037\314\275}&N>=6(=\003-\252\273r|\225<\2179c=I\014\311=\256\345\357<\317\2548\275\177\022%\276\307H>\276\333\377!=#\376\030\276\274\301\216\274\270+R\2767\272\214\274G\332\225=*`\030\276\233\227\332\275\207\357s\275\335\371\030>v\236z=\224\215\017\276HZ_<\034u\230= \345)=\2057\030=\370\2415>}\226?\275)\370:\275\220;[>G$\355\275\373t\230\276n\237\315<\034\331P\276\026D!\274\246\220\314\275\340\364\374\273mXq\276\352\253\327=\306k\326;\nl\200=\027\371W\275\324\3429;16\205<\340\300\273\274\254\307o\275\343=\367=\277N\211=7\244L>I\312\350<\331n\236\273\254\256\251\275\365\237\005\276`\201f<\"\336\215\275x+H\275\323\250&>\360\335\251\275B\211\272\274\371\014.\276\017\037\233\274\'\345\307\274#G\254\275\317\326\020\275\010s\337\275\217\010\001\275Q\3277\276\237\2510>;\273,>0\262R\275\330\371\002\275\034\375\367\275\3224.\272)\031T<k|\211==\326\007>V\334\265=_\263\327\275\365\010\022\275\001\014\204>\263\257\255\275\372\377\206\276Y\021e>\201t\001><\217\034\275\325\331\263\275D\2240\276\347\316\037>\336\204\331\274\217=\316<\221E\212=\365\217\320<K\002\250=H\327?=\325{E>\377T\210\276\"K\322\274c\3364\276\234\251\221=-\276*=\240S\013\276^>\227\275D&\356;\022|3\276S\323\210=\360:\036\274\241I\002\276\302W\262\275\317\t\362\274\010\372\t\276\376g4<\266\2129\275\257\201\231\275\377I\244\274\350\237-\276\034\021\342\275@R\274<\n\022e\273\210\010\245<cxi\276I\266\254=\247>\241;\363y#>\337\034\277\275\363\006P>)\365\264\275\225k\275<\344\236Y\275\004\314:<\221\214\001\276\312\241S\274\"\370\277\275\265(\206=B2\n\276v\303\255\275\244\335\202<\232u#\276\367%k\276\t,n\275\303z>\275\312o\344\275?\231\000\276\352k\320\273:\362,\274uVN=\364\255\363\274\346\233\327=\253\301\321\274\224\306\345=N\3143>j\321\270<w\321\201=\026\330g\275W\325\t=\343\020>\276e (>\240\034&\274E\255\243\274\345\246\001=\353\256q\275\005\341}\275\374\206\224\275\310<T=e\262D=\240+\007>\n\210A\276\347\331\014=(\346\t\274\243\024\031<\213\323R=\255]\261\275\002)\213\275\373\217\310\275\345^/>^\3779=\260\023\036\276\340\214\320\275&\351W\275\325\270\r=X\225U\276\001_\360=f\235\017\275rX\305=\306\213C>\240J\006>\254j\333\275\216~\345\274]\201\216=hh\026\275\250O\263<\325=j=T\207x>/\372\240\273\375\222\271=\255Y`= D\023\276Tf\022>\316\355\016\274\251\302\322\275\325\346#>\277\027W=\204nw\276\312\247%9\214}\322=\320Y\036\276\321\276g\275E\314@\276\245S\216\275<\204I=\370o\347\274Lp\305<\207\216/=\327\343|=~\017\326\274\206\2572\275\361\347\342\275\275?\377<%\016\277<\266\236\035\276\271t\r=\337X\355\274\320\270\202\275\276\316\233>\352\344d=_\323&\275<A\275\275\345\201(>\014\364\217=\327\374\037\276\356\344\206>-\3556\275\t\364$\275\226:U\273\222op\276\242z\247<\022\'\002;G\372\237\275c\2532\275Br\033\275|Q\372=\235\235\203\276\371F\033=0\317\'\275\200\351_\276X\264V\276\'\305\225<F\217\276=\326j\020=\276\034]\275\024\004\372\275\217\002+\276\233\325\005\275V\256\331=M\355\247\275`~\313=^\243\206\275\342\243\224=`\327<=\024\244\223=\033?\215\274\310-\364\275\363\256\211\2757\357\323<\271\230U\274\351\3547\276\300vq<-m\235\274\027$Q>\352@H\275.:}\274\226\370a>4T\034\276,\303@\274m\210\350\275\331`2\275\243\363W\276Q\256\302\275\373\014\231>\352\301\377\275\323\246L=\025\305\032\275\024k\343\274?\213W=\030 \335=\235\362\\\273a\205\213==\365\302<z\331\227\275\220\343\325\275B\272\370=H\304\213<\315e\216;T\035\332\274\375$\031\276\337\312\231\274Q\014f\275\2138\305<\261(H=\207\026\"\275\371\310L>\373\261\246\273\207\r\342=\n\250\215=>\240\371\275\3670\227\275\312/\263;K\260\202>)Bz\274\317E\002>a\230\366<v.\356\275\237\010A>U\r\200\275\231\024\240\274P9\276\275o>\003>y\366\211<\327\374\355=Y,^\276[\361\227\275\177\264\202\274\335\021\204\275w\305\336\275\240w\263=\207\007\021\276\331\000Q\274QE\326<3y\257\275\036\215#\275RD\224<3\234d\276\2723\016>\265\344\236<\203\324\247\2728\354\335\274\026*\202\276za\260\274\337\272Q\275\306\202B;kd\\\275#\377r=\271\343\335=q\252\214;D\304\213\275\376i\241\275\364\276\000\2768s\323\275\004\376\343=}\226>\276\323\271\323=\333\373\350\274\276\303\233\275U\034\322=\245\310I\275\035\347y=\235mU=\262\221\272=&\020#>/\367:\276\253\035\350\275iU0\275\220\212\303=(k\353=-\r\010\275?\200C=-\337S>\332x\210\274`\255\227\275\247\337\320=\375\205\320\275>\247\234\275\260\230H\275\216\202.\276(\333Y>x\021\331\275J:!\274\343\002P\276\211\327\351=\230\313\244=\374\353\246<*\027Z;\31649\276f\342\245\275\273\2302\276\206\333\224=\377S\222\275\006\237\205\272\341\036^\273\343(\362\275-\270\255=\366\377t\275\270\252#\276\300\205X\276k8)\276\362i2\275\262\355\322=\221\231F\276\222\234\300\275nal\2764:\001\276\241\316\212\276\035\200\375\275|\027\030<\211\275 \276\213\273\177\275H\001;\276W\224h\275\327\222\t\276`\241o\275<\363\315\275\306\362\275=\354\331\256<bvk\275\222\360\261\275SPF\276\314\237e>%\233+>\263\023$\274c\214\326\2748\254\207\275Y\271\304\2755o\007\276%(\203=\362\270\245\275\256g\204=\355\203<\275\264\373\262<\255\020\031\275\260\233\022=;L\235\275\031J\357\275\223\376\305\275e7T\275\306_+\275\343\"\355=O\rW\276\2572\207\275\324{\244\275\352\354\000\276&\034\346\275\225\261\326\275\334^\247<y\327b\274o\221\264:!Yf\274\340\271\372<\257\302\267=\225n.\274\252\023\306<(\325\223=\321\3744<\2430\275<+g@\2743d \275NNc\274\202()\276\310\006\335\275W\235\000>\200\304\241>\032\375{\273\332\345\005\275\300\311\333<\255\013\261\275\273\203\204\275j\302\231\275\037\2248<\306\233\352=\030|\364\275{\023\010\276F\267\t\276.\017\367\275\264\324\272=XzZ\276C\301\221\275%t\010>\353\203:=\246\277\333\275\337n\210\275J\323\225\275N\327|\275\215\262\201\275\000|\021\275\261`\211\2752\254\365\275\307\252\314\273\255\217t\275\017<\344=\230c\235=\214\013_\276R\241\360<\204J\200<\330\231\273\275\224\035\355\274_\370u\275\004?1\275!\333\275\2739\001a=\3444\017\276\277\265+>\263\264\334\2750\305\222=\372\252\263=/j\200<gG\005>\235\310\302\274\205\344\207\276\244h\307\275\036\222\244\275\035\036O<\201O%>\'\206\242=\316\246\'\275#\363\206=\354+$>\3114\032\275\212\315\213=Tn\346=\236\333\216\276h\376\264=\325\233\330\275,\343\230\275\340\207q=\234\376\337<\006V\235\275g\310\036\276\200H\230\276)\315\237\275\352\224\032\2761a;>\317\230\335=\255\267\017=\224b\201=^\034\346\275\301\027\330\274F\321\307<\260\375B>|/\201\275\256\007\246\275\026\342\237\276\305\200\366=\240\361%>8\325\217=e\315|<\"\214\206\275\n\025\223>\276\317\212<\266\214-=8\014L\274m\351\006\276n\232v\276\263x\026\276\337\200X>\353\202\330\275\313\214\206\276/C\001=\005($>\376\267\026>\324\021\260=O\300\005;\201hj\274\343\235\013\275?\251\263=\"`/\276E\247r;\212]\202<\001D\301\275\206\270\033\276\244\352\020=\374\271\231\275\2139\202=yv\210\276\241\256\030\276\214j\022>\252(x=2\363\240\275,:\241=\342\325e>\350\316\235=\214\313\037<0\314\014\276\000\376\302;\366\226\035<N\214\360\275\361\344\006=\253s\021\274#\265\227\275\212\256\212\276\260\320\033\276\034k\276\275\022e\232\276&eG=\353\3348\275M\336\006>~(\350<\201;\235\275}\000<\276\342\266\324\275R-\310\274\361\024\234=\372\336\203\275\232OZ\275\323\322p\274\203\000\304\275-A\272\275\263\020\353\275Jje=\000xA>\022\007\262=\356\023\023\276N\334m\275u\241\212\275\220v\376<\330B\"=\362L\005\276f\272\367\274\234% \276\365k\006\275\337\022y\275\207c\367=\025\2154\2753\257{=\321\032\036\276 m\271=\013J\251\274h\244\033>\362\205[\275{@\211=\036\322U\275|z\205\275\356@ \2766\270\347\275\023\364/\275\313K\220\275\2077b\276\306Fe=~\017\356=\334:\304;B\0260=\302\267\247\274\251\\\t>\327\2043\275\371\263f\275\303\263g\275]9\240=d\322|> \265\006>\332I(<\253X\020\275\017\316\004\276\271p\273\275\030\276\037\276\272\310\346\2752\255\322\274\352\206\207>\2476\224<\314S\207=\3065\036\276%\210\215=6\007l\275\211\2567<Im\010\274\325D\301=S\236\377\274@=(>\266+\001\275\366R\362\274b\203\277\273\351.\214=\2032h\274\031\267\002=\311\235\177\274\207T\242<\266b\311\273\2760\035>\325\313\212=\317\320P=2\303#\276\200\337\214=~oF\276\023}\201\275\327\352\033\276\253K\005\275\262l<=\265\254\330:g8\207<w\324E>\221\2507\276\300\2072\276v\341\244=\323\021]\273\316R\275=\231k]\275\267\270\247<\374t/=.\275\312>\261h\n>mp#\276L\375\254;\354\r\247<g\200B>\326\017\244\274R\211\214\275s*\300\275\210\201\226\275\265\330\274<\347\226\220\275s\300\202=\363L\262\275\301\004\252\275C\336\303\275J?\233=y\001\351\275\002\300\372\275\305H\023\276\333\235\017\276@\312\266\274\204\367\223=t~\225\275P\361\230=\343\353H\276\340\002X\274t\273\376=\277\202\020>\\\353\252<\261\334}=\27153\275\300\n\033\275\267\305\'=\323O\376\275*\260\335\275\361&\204\275\203\245+=\rn\026\276\"\232\336\275u\353v\275\357\250\200=\260G\244\274\204\013\001;\325\250\263\275`\275?\276a\323\001\2760\306J>\302V\013\274\361\304\203>\325?\002\276\351\2332>\230\n\304\275\255Y\033>\030\245/\276\013\'t\274\347\310\020>P\355\003\276\254p\315<{\177\322=\276\256\211\275\271=Y\275\212\r\304= \332\204<\007\253\372\274\365?\023\275\352y\355\274\017\324\017=au#\276&QX\275\032@\342\2757=\327;gU\206\275\261&_\276\301\203\253\274\\F6>L\2511=P!\\\276*\231!>F\376\266:t7\336<=\267\006\276\344\376\325\274\374\225\330=/\313\325\275\031AA=\313\0251<\332!\037=\311\331\256\276F)\n\275H&V\274\022`\n\276\317J7\276\335>\261\274\007\266\010\276gn\246\275\313\0209\276\022\250x\2754gq=\225\313\261\275\337SV=S\341v\276E\030N\276{\000\317\275M\213q\276jG>\275a\000\334\274\356\312\\>\353!\343\2726\202\303=\371W\224=\207\310\016>\013\030\352=\276\216\225=\332{\247\274\332\204\365\275\357>\222\275S\221\036\276\006\220\363=\224`\373=\322f\216\274\224\264s\276\0220\255=\341j\205>\270\313\237\273\233L\355=\254\326.\276\247\251p=\357\244K=>5\307\274\305\336\342\275\305\243K;\224\305>=\230\275\354=\037\311\017\276T85\276\372>v;\3362Q>EZ5\276\270T\325\275\332w\256;;\351O\2768\200\034\276r\025\245=\261\353\247\274~\324\344\275\317\002\000>b\"o=@#\212\275-4\273<d\325!=\225\240\276<\222\277\021\276\372\357\256\275)Z\327=\005\371.\274)$\001\276v\353\331\274-\270\023>\257\376\247=\370\206\\\276\251F\025\276s\337\333<\356\010\037<\2047\027\2766\204F\275\362#d\274=&x=\021\361C\274\350\343D\273\'\256\334\275\332\3526=\273\304o\275:\223\340\273jx\307<\334\265%\276m7\240=\023i\253=|\262b>\n\311\343=@\233\003>\272\273\323\275\342\027\002>\301o\000\276R\'\026=\245\r\021\276x~R\275\271\376\264=\273%\200\276_!D\2754\271\t\274\353z\332=\037$\311\275\331!\014>A=`\276;\215\345\275hu\315\274\324\323+>\t(\020\276\n\342j\275\010\261f>\326\026\014\276@\231\207>\007\362\373;\357\302\030>\254\342Q=\241\272\320\275\314t\213\276\223\376\322\275\321\301_\276q\032\334= \220\026\276\377\326\001=\253A\010\276\372\031-\275\232\301e\275\361\300?\276(\t\213\275\364\241\273\275\321\303\025\275~\342\312\275\315\342\021>\223\306\312=\264\213\227\275\240<\t\276\335\027\003>c\230d\274\316\250w\275(\246\023>\260\257\335=6\\\035\275\2375\000\276\345T]=\235\326\213\275\370\341\203>\231\203\237\275^[\004>\2727\247\274^-I\276\331\367\202\273\261,\020\276#\353R>E\035\257=\214\365\243<\332\035\250\272\300\342e=\002\r`</Uy\275\270@\007>\360\002\302;\005B\222=\022\265\214\275Jja=~*3=KSm\275\027\211G=\310\002\267\275=\006\200\276)K\263=\222\231!\276\327\322R\275\234\001\333=\353!p\274H\020\372\275\252fc>\007\021\025=\275\223\030\276\256\342\301=\366$)=\320Z\246=\260Y\273=w\030_\276\341\341\202\275\177\373\354\275M\320\234=\373@\n;\2466\261\275\240\332;\276\340\305\306<\324\324\216\276\216\177U\275W\223\215=xz_\276\343@x=\270\302\014\276\247\374\241:!\007\033\274\014i\200\276;N`<\2168\273\275\234/\204\276\273\327\255\275\203!U\275\302\254\232>\277\352\206\275m\374Q\276A\224\367<\254q\224\275\332|\311>Mbn=L\2427\276\201\216\301\274\263\340\303<3&*\276\021\320\206<\304\310\206\276(As\275(\254r=\357\036/>\264\013&\275\246\"\200\275\352\213\231=$\374^=\271\352M>\212\343\253=\211\270{=\300V\334<\024\3744<\346\216\344\275\002\225\232\276w\233X=\254\033\007\276\313\362\361=j\017\337=\2031\213<\312 )\276h\023\372=\034,\317\274\311\013\007=%\266\021\275\224U >/\257\022\275\216Q\245\274*\336\206=\013$\353=\235h\320=\305f;\27627g\275\351\254\356=MfM>\035\227\274<-3<>b\023\357=A\251\337=7\2720=(\363Q>l\220\306<\177\270\016\275\374g\316<\215|\227=\377\030\024\276\326\3504\276\275~\377=\317\330\274\275\261\267Z>\250\265\332;n\305L=\265\023\202\274M\234\003=o\303R\274\375\237\277<\014$\351\275\247\026\024=M\274\n\276\026E\276\273`)\242=/Q\300<\033\224\234=P\252\271<\307\300\277;H\253\363\274\307+\345=\243u\013\275v\021\214<1\327\252\274\r\215\246=\306\001!\274\3226\244\2751%\271\274i\306\213\275\204\301C\276c>z\273A\251\206=\201!\210\275cg\223\275\2372\314\275\366d\013\276\370k=<\373\265Q>\021\002\217\275t\377R;M\364\224\2747\276h\275-\331\017>\363D\220\275\031\376\021<\n+E\275\001\325\203>\322sv<\247M\'=\223\035\207=$L\226\275\375\010!\276m\260\026>\037r\343=(\274\253\275\000\354\224<x2e>_\336O\276>\2170>#XP<\337\324R\275\253\233\345=\336\312\356<G\233\003\276\225*e\275\3538\344=\317\317h\276\347\216\r>\237IE\274Wr\231=B\210\341<\245+5=\201\220\343=\037c\005\274\300\303\235\275\320E\274=\370\2473=\336S\362\274\237\350\205<\323)\220\275\350\200\227=\357\r\206\275\320\025\034\276,\'\020\274\365Cp\275y\'\024=\242\345^\276tA\226=\020{,>3?\271\2754\365\016\275\016+Q\275\3736P\275,ot\276\036\363\367=\234\375\223<D5\340<\n\236\202=\243\"\033\276<\341\000>\302B\001<\002*7=Ep\n\276\260\030\000\276\022\034\212\275N\010\032\276\206NT\276\364\3524=1{c\276|I\312<C\204]>\247\367\021<ak\344=\223Y\252<\367\3118\275:\323\2769\366\246\221\275F+w\275e,\025\276\236\240L=\352\222\003>\217a\366\275\326\264\210\274\230\234\003\276\332P\020\276w\371\205\276\351#A=\342E\005>#\370\004>\353w\222=B\200\001=+\373u\276|w\322\274r(\357\274*|k=\230\212%\275|\243\364\275W[V\274\202\231\255=\215\221\002>v0\227=\177\323\007=\372Z\266\275\3304\025\275M\344>=\222a\034>\010`\310=\340E5>2e\020\276Y2\340\275\231\3326=d\0138\275\244\312\201\275\272\273\323<\253\0339=<\341=\276\331\343\350<N\365\277\275\351}(\276\203\014\300\275Rg\021\276\025#\242=\316\264f<^\310L\272\016\366\253\275\240\316\026\275\357d\366=\333\255d\276\242}\306:;\215>\273\255V\231\275W8\277<\301\373\306\274\250\036\350\275\360\213\305=\200\367+=\375\267\275\2751\212\240\275\335T\203\275N\351\342\274\314h\323<\213\375\275=\356\337\250\275\025\233|=\223\376\206= \341\274\275\001\020\344<\257K\262\275\331\331\020\272\367nE\276.\016\302<\223Z\035;y\370\345\275,\213C\276\203\234\377\275\007\036\361\275\310\314\'\275\353\030\t\276\212E7\274\207\236\375=\345\204\303:6\370O\276h\310%\276\353\034\234\275\206\005!=P\003\200\2752SA<5\340,<9O\322=\232\333\243=\034\253\277=\333\357\002>\007\271->\n\313\373\275\246\357\207<\306\345\023\275\250\326\351=\026p\220\274|h/\276R\201\354\274*\177\240=\2328\211=\010\341\303=,W\310\275\213H\223\276\237\366M>\341\013\312=\317\221^>\226\274\206=\037\232\020>m\244\002>A\024\276\275\005\224z\274\273\320\201\2742\037\365=\0140\007\276\030\313\027=\357,\372=\212\276\352<\313\003\262\275\236\002\214\275\320-\344\275\320\300#>\341\374%>=p_\275Xd\343\275n\320\263=|</\276\016D|;\315\221,>\252\"_\274\240\376\r\275\344\262\241\275S\215\030\276,\345\014>G\322K=(\337\006=\034\230h>x!B>7K\005>\374\215\317\275\235\2418>w(\306\275\214\236\002>c\334\223>6\372\205\274\226.\017>\036\306\001\273x`p<\333\001\304=\004\276\322\275g\t?>E\010\010=kq\210<\311\017U<\231~\213<U7\206<-o\202\275\256Y\033\274\004J\330\275h\247\247\275Z\377v\275\256\\`=/\301|>\264\t\215\275\003A\226=\342b\304\275\310 \022>ZY\2319;C\250\275\320\313\027>N\213\247\275;DT\275\367&J=\320\243\217=\033\246E>\356l\227\275i\242\230<\201\035,>]\200\021>\200\213t\275DW;=U9f\274\002\235\335\273M\005\363<\331\231\033\275?\367]>Hj\304<\034\005\026>\266\302X>\376\362p>\276\224\376=\242r3=\341\376\304<T\004\031=w\272J:\267:\347\274\007\350\277\274\222\001+>^\021\221\274\233\255\213\275\260\361R>d\251\270=-\216=\275Z\002v=s\2735=\336\342.>Bf \276\267\366`>\227\217b>)V\007>\246xF<\374\220\022\276[g\201\275,\201;>e\210\332\275\314G\200<\222q\003\276\323{\007\276<e\340<!c]\276\315\263\226\275T\227\302\275\337\006#\274.\255\010\276\367#\311;\224\216\256\275[Z\007\275d9\213\274\244\274!\276,\313\222\276P:\244\275_v\233\275N\363\343\275\361\330\203\276;>t=a\272\302=\363\234\370=\305\273\263\275\234{\004\276\342+\234<\244\370,=+\274\314\274`\245\242=\316bT=\351\255\324\274e\250K=1\352\275=B=7\274\333\034g\276\363w\000=\213F\330\275\240\263\201\275\002\353\216\275\346\362\355\275\251\320\237<\226\352\306\274C\036\243<\364\267(\275O\021\t\276\237\265\344=elv=\nw\203<\216\177C\276\"\013\223=J\352\306=\345\254\211<%\265\010>\'\234\376\275\226(\217=\263\\\023\275\360\330\330=\016\230\333\274\010D\361\275\277\2274\276\241\003\242\275V\263\356\275_\315\200\275B\331\332\275\373\033\250;}\301\276<L\214\235\275\330\251\371\274\275S^>\361\246\034\275\216\203&\275\257\305[\276\267r\0179]Y\031\276\222\207p\275r\321\362\273\366\230j\275\276\307\300\275\332\236\230=\273\013g\274\271e\001>\254z\017>\207]\246<^v\276;c\327\016\274L\256H<\202p\241<\177\021\001\274\233u\003>#\363\000>Q\242\\=\013\265\247\275\2423\027>^<\227=\234\246V\274\317\260\003>,\"\t\276\356y\343\274%\335\004\273\360`\255=}\361\344=\232O\276\275+\355;>\337\234s=\351}\017\276\365\300>\276\345!\016>\013\306\256\275\257\276^\275\346\270P\276B\016y\274\232\220\033\276\263a\245\275B\320\n\276\003\241P\275\031,\317\275\300\243\320\274\230\001\013\275_\354\217\275\343=A=\256\230:>\366^\274=*\004\002\276\031)\350\275\210k\310=\026\351\256\274\310&\272\274\255@\334=m\177\274\275j\255\303\276\002\030\206=v\003I=\3367\336\275\252r\255\276\261\267\304\275\000\350?\276\304\343\206\275\336\3075\276\006\3043>m\3720=\342\276\034\276+\357\207=\213Q6\276Y\033`\276cd\371\272\377\036\024\275\323\375\320\274\353p\222\276\267\035\227=\342#;\276P\2671\275\326\361\227\273\223\373\221<O\214\244\276\2565\021>t\243\244<\3333\312=\027\263A\276Y\227\036=\"\357\215<\274&?\276\223\035\325\275\254\314\344=@\026\022>\213G\024\274\247T3\276\3064\201\275\007\271\261\275\366q\263\275\347\345\210=!yk\276\235\372\034\274,\216n\275RBb=~8\023\275~\202\271\275L\005\347=[\356!<\272\310\377\275\255\034\240\276s\212\275=\026\315\201\275\326\376\216\275i\226\221=\204Z\304\273,\023\211\276X\037\211<\237\276\035\275\030\300\007\276\016\001]\274?\223\316\275\235\241\275\275\004\177\366=\251\005\017>U\221\036:\236q\003>\310\034\247\275W\372\\=e\227,\276\256\235\230=(\342\244=\271h5=9\201\352\275k\031\276=\"7c;\016\361v<\214\311\200<\244\262\320\275k>\231\275F/{=\335X\'\275F\2025=\310\361\326<UI\306\274\320r\323\271L\333B>\241\241\'=\252Ff\276\3327H>\365^W=\247V&>\003a\221=\331//\275\274\273\321\275\220\330\033=\2024\316\275\270[\031\274\230\256\033\276\314$g\275\242\250\204\274X\252Q\275\351\022\361\275\001\361\026=*\030\372=-\276\314=\307t\242=!\217\217\276\275?8\275\016;\275=N\000v\276\014\"\225<\266\020\026\276\304\205\031\276n\322;\276M\237\361=\373l\020\276\226tJ=\210;\346<A\211\350\275\007\307\235\275G\325\002\276\274\300\252\275\304|\260\275Gg\245\275\025p\244\275\t)\034<7\271=>{\310\372\276\337\313\023\276U\367>\276u\016\226=\212\004\373\275W\361K\275\223\323\006\276f\304=\276\372\017S>3\224\252\275\027\205\343\275\037g)\276\"a\252=.\3679\275 F\214\274\277q\330\275\315\261\334\274d9\367\275\330=f\276EJY>\311\345\375<.\177\001\276\r\256\016>ev\217\274G\021\n\276\322l\262\274u\034\027\276O\236\357=\017\331`\275\304%J\275\031\006\267=\336u\200\275\n\274*\276\362\220\305\273!\003;\276m#\363\273\264\327a\275#\016\354:\365\263\270\272\230;\321=u\3115>?J\266\274X;\262=\256)\032\276\307{\257\2742\330\254\275 \n\002\276\026\351\351\275\223\361\222\275\274\001\257\275f\027\356\275NbB=\277\331\250\275x\020@\275:\003 >Au\221<}\213W\274\367\022\007\276\321b\371;\255\256\200\275c\025\274\274\327\304j<\270r\322\274\006Z\237\274\245\276\205\273\344\277\355<\370\307\236\275\207\247K\274\r\2619=q\243\374=\323@\352=\302\235\241\275\334\250\221\275Q \276\275\203\333\026\272\006\243T\2754\231\314\275G\r\335=\250\204m\274P\215;=\034}\231=C\350.=\007\276\370=\361\226\221\273)\200\023\275\315\327m\276\033\201#\275\n*<>\272\277\244\275p,J\275\206(\261\275<\340\241=\265\346\206=\243\363i\275\335B(\276\301\204$\276Y\335[<\'\270\223\276\2605L\274\177\314\'\273!qJ\276\214\212\023>\372\"\227\275\370\3420\276\'Z\266\275B\272\037\276if\253\275\305\254(\276z9\301\275vP\014\275\230e\335\274<kQ\276G\003\216=<\305\251\275\266a\314\275\3167A\275\035\"\t:iC\270\275\310\340\t\276\246\201\247=[\001f\275f\023\254\275\204\204\230\276\304\274\322=\301\346\020<\004\235\250\275\370\177\010>SMo\274\244\224&\2765\262\360\275\227\312A>\205L^>\311\373\262=|*\177\276\242\005P\276\270\243H>\262\351\210>n\223\035\276\320\004}>\007\253\316\275}%\263=\035\253\230<\241\016N\275\352b\223\275G\267w\275j\312\002=\334\2100\276:\021\'<\250\203\230=if\007<5\207R\274\023By\275.\222\003\276\203\206-\275jI\204=\320Pr=\007\0242>\241I\024\276\261\364|=9=\300=\252\367\253\275s\006P=\356\037\261\275\327\316\264=u\302\031=A2z>\301\323\257\275\246\"$>\355\002\234\276\277\346&\275S\3163=\207\005\316=\036\215}:\362OZ>\245\313\026>2\366\031\273\350\2324\276(c\016\276\027b\256\275\036\224\017>Ms[>\346g\010>\334\"2\275\341\003\223\275\235\202\333=\300u\034\275\320^\250=\325zE=2\021\367\275\205\377\020>He[=\371\000]\275Z6\327\275\375\245g<(\364\316\274\336 \266\274\000T^\274w\326\241\275\354\256\253=&\221\305<\365U\245=\033\2762>2[\265=\272\272\270=\344\323\246\275.\"e\275\010\202q\276\202\236\361\273.\021#\276tQ\204\275QT-=S\267$:\304\357Z\276o\230?\274\224n,=O\360\314=\253i\370\274\317\264\034\274\323\301x\275\264\005\247;\307\354\271\275\222\000X\274\032H&>\343\312O>:\016\013\274\316+[:-\3752=\231\222\330\275\241\237\335<G\036\214>G\023*\276\343\263\207>\272\235!\276a\010\335\275\245)\201>\341R\232<]\231\'\276\n?7\276\226\356\337<Y]<\275\231\2655\276\215\206\311\275\375\324\020\276\256E\002\275\302\267S=\310F\n>\3408\252=\205\355\004>L\271Y\271\326i\277\275\t\"\017=\226\036\221>oHP\276+\272K>\336\347\272\274\324;\225=\026Y\336;\204\203E>\212\256\231\276\270\231\305\275&\320\t\276\247\230\356\275\271Yr>\205-\212=\r\016\023>\2231\037=\367\275\351\275=\355\233=<\350\200=kE;>.(\203\275\222\323\243;\rhb\275\233\302B\2766\305\313\275\355\315M\276) \026\275~\215\010\276\314\177N<]\325:=n\243\014\276\345j\215=\350vh>g\270\003\276h\344|\275\\\246*=\0372\035=\007}\236\275\024\374h>,\354O=\024\010\213\272\212\304\202=\225\346\001>!\222$=\273\021\005<j\230I\275\227\272)>\2106N>&\355\323\275\317\335(\276?\306\030=\344\312w=\177\215\257\275\336\353\230\275\26054>\024Q9\275\351\367\364\274\207\337#\276\326\276\337=\357\313\262<\327 %\275_s\232=d)$\275\205L\242=\023LH=\010\356\301=\372\251@>l\202\010;\260cX=\026\001a\275\206\333\301\275\275\255\033=]!\231\275?`\321\275\033\342O=l\355\276=>\253\031=V^\251\275}\374\267<)\000\213\275\243\027;\275\264\r\031\276\257\2616=\302T*\276\246\255A>\322\366\r\276\301h\224=\212\223\242=\271\036e\2731\030\037=\270\223\202\275\220\'\212\276\310\225\230\275s\034\344\275\3723p<\313_-\275\216\220\310=:\001\035\274Es\020>\260\255N\276\352\037\210\275]\275,>\364Q?>k$\324=\225\231+>\200\022\301=\275\245\021>\262j\016\276\n\252\313=\315\002\224=\353\342X>0=F>\353\312\023\275\"\031C>(\340\274\275\225\311\336;\313\000\355\275v\024\220\2757/\250=]@Y=\245)\332<\355\302C\274u\263\026\276l\252\005\276\243\3774>\362#]\275\321\345\264<\224_\323=yG\014=\253A`=I`S>J\3555>\301\355\233\275\231\025q\274\251\274\031\275\372\001\325\275@ \211\275P\260\020\276\266d:\275B\223\300\275~\214\272\275(\022:\276\254\370\334\275{\363\353\275ms\325\275\3370\346\274\212\350\301=\244\n \276\342~P\276\252JA=\341\262\335\275\001-\024\275\252\3435\275\343\356\266=\020\262\375\275nF\254\275\347\n\316=\220Ii=\3125\274=\002F\367\275ur/\275\001\260\227\275\222\275\246\275e\223\306\275H\222[=\231\201r\276u=\325=\363\325\025\276\010\023.\276\331\033s\276\002\"\255\2767\021\302\274\334\030\354<\273\'\\\276\3608J>\005s\024\276\204rl=\307\2314\276\337\020\226>6\351O\275\\k!\276\265\007\202=\367\2100>\2264\200\275\374^\355\274\246\020#\276\346\300\326;\3108_\276\335k%\2768q\211\275\372\304\377\275b^\374\275b\037\312<\021r\032\276\340\272/\275\274\363\020\274|j\277<\231U\306\275\231\207\264=C\001\300=d\250\002\274n\236\200;\032D:=P\235\243\275eQ`\276\310P\005\275\356\304;=\335\255 \276\377\333\266\275\305^\204\273]\337T=\247\313\271=n>\312=\213_\350\275\371\360\033\275\333}\364=}\'\365:\224\352\324\275i\306\274\274\376|\340=\221\367t\275\274\257_>\233\211\212=\316S\013>`1B\276\235\275\001\276\327_\264\275\347\353\300\273h!\310\275\252\346[<\'\232\313\275\304\311\333\275[\256.\274\373\227\311\273\204}\320\275\003\230\227\2767_\222<\004!V=2]\234=\347\013X\276\036\266}\275\303C\352;\207M\230=@\331\324\275\3555\264\27511\232\275+\272\246;\242\007\325\275.\037N\276\034\277\256=\330NB\276\2439\205\275P2\027\276ZLF\276\036M!=j\261\215\275F\313\266=#y\007\276N\027\027\276T-P\275t\224\300=\007\273C\275\365a\305\275\"6\006\276\363\317\026\273\325\203\273\275>\251\201\276\362_\236\274\201\315Q\276\000\374\260<\337\036\272\273\210T\257\274\273U\377=\277\322\311;\370\366\240<\263\265\367=\321HQ<\026.\231\274n\210?>r\034\000\276\337\232\002\276O\036\277:\222\215\350\275\250\357\227;\002\311\234\274\033\253\245\273\263\215]\275\330\266\217=\353\240\221\276\257\002\332=\017\nF\276\320\t\331<E\026\227>0\226\t\276\352\004\242<FQ\002=N\313\016\275\317S\371<\0270\265\275\300;\371\275Z\352}\276U\377\255\273@zk\274#\264b\276\203\262\325;{B5=b\233\264=\221\210\006\276O\026\200\275\232\357\022\275d\036\224\276W\3312\274\031O0\276\227I\305=m\362\310\275\245i\216=\027\243\315<\223\035\276;3\276Z=%\214L\276V^\370\2734\322\001=\332BW\276\242\200o=\010\353O\276m\177\240=\364*\272<\263\300O\274\254Uy\275\224\376F=\037\212O\274z=9>\224\037@\276\276\326\235\275..\231\273h\245\253\275F:)\275\373\314\330=\022\317-\275 >a>\307:\026<K\226*\275\344\322C\276{\301\022<\020\351t\276\2016\027\276\242\203.\276\227_\324\273\253_\372=d\274\367\275\266F\236\275\'\251t=J\252\236\274j\301\316=\037a\310=\375`\024\276#(^;O\205\351<\013O\214\274J\000\224\274^~\251\276\3045\323\273es\316\275\262u9\274\243\3316\275 ,\205\273\205\377m\2762\016\256\275\273:\321\274q\230l\275\257?\t\276Z\265\025\276\302c\265=I\310u\275l\313\312\273\233m\261<\224L\365\275D\246\013>H\347\216\275\220v#=e\202\002=\017\337\203\275\016F\375\275\266\006G<:\221\013\276\331\252\033\275\203\376\253\275t\234\030>\204t\n\276\301\023\034=:44=`\271\354;\204%\310\275\231q\204\275Drc\276^\316J=\231#\212<S\257\211\275\\\230r>j\307\250\275\225\305\010\276\314>\006;\252\312\3779\026z\313=\002 \013\275\200\027\017>\242\203z>\366\001\021\276\300\316A>\340\326R=\251\305I\275V\253\371\274\2069[=\023\354[\272\240\020L\275\271\224\336\273\372z\031>*+N>&F\357=\014u3\276#_\303\275\034\331.\275\2367\345\275\340m\260\275\032\305\375=&}1\2758\361\265\275\256\237\271=_\177\"\275\246\301\266\274\331\263\317>\223\004\355<\332\360\027\276O\332F\276L\321\214=\363\017!;4\356\330\275F\230\002>\026\3222=\367\000}=\342\304\035>\245\234\304\275\240\276\225\275\243\177\031>\036&\306<\242\027\032\275\246\251#\275v\231\247=M\026\037\275Z\034h\2735\003\247=\013\223\367\275\237\265\227\274V\247\335=\303\241\022>-\375\362\275\365\241\232\275h/\240\275\350y\004>x<~>\257C\245\275\321\261\004=\302\342\217=\320D\354=5)\244\275lM\247\273\213k\021\275}\033\232;\244\014\226=i\334\262\275\270w\246=\364s9=b\022\207=\322\320P<c\033\354=|\210O=-\260w=\356\240\227\276\305\255\306=^\353k\275\377\026>\276\347.L=\330\273-=UM\256=\303k\304\275\317\202\373\273\333p\225\275\371\315\230\275\345Z\023\275\"M\244\274*O\333\275\277V\241=\336JM\275\223\036\367\273rVe>:CB<\364\'\353<\336\247\263\275\264\204f>SO\310\274y\351\350\275)<4>\363\202\340<\212\333)<}^\244\274\364\374\333<dc\322\274z \005\276\325\305\017\274Ell\276\265P\274\275\250\354\t=2@\315\274\"[\237\274\313\230\372\275\306\342\347\2753\003=\275t\344\266\275\002\247\363\275\341V\272\275\036\305\036\275\022G\345\275\366\365\037\276\021C\200\275!\201\002\275\2434\264\275}\031\261\275\264U\242\276\005 \202\275ZF\215>\365.\020=\257\032\265\275\377\273\014>1\272\313\275\202\375\231;\022\346\267=\335\301\351:P\020\000>\247\273\230\275TD4=\032\241h>\230S\316<(\322\277\275\224\355n>\373\362\227<\3517M>\237X\365\275A=\347=\271\005N;\301\251\361<.\324\212\275\327K\006>\030ll\275\374Z\031\276 \303=\275J/\314=xr@\276K\023\027>\232\320\r\276\325{\"=\002\002\'<\307\304m\275\205d\253\275R\305p<4\220\342\274\202\2073>\\\331\367=2\344I>\271\304\300=\322\333\240\275\255\301\362=\377r\000>\214D:>$\343\255=V*\317\272:\035\342\274\007\007\371;u\306M\274I\337\037\276\334;\225=Ap\237\275\322\216\010\275u\206\037\276\036\335\373=\333\350\312=\233\365#=39\002\275\262\371\300\275\250^\256=#\355\334\275\256fT\275s\307B;\037%\225=\244\203[;\342\205\211\275\020s\332\275.~\244\275\204\253\025=\24717\276\216{\014\276\260\251\203\275\256\322\244<&*\246<\202\306\263;\245w\376\275\024KR=\346\340\255\275b\252\004>\235\231\331=\027\234\203=`\224\323=#eA>\221\201\231=\276\2020>!:\\\276a\344\255=G\006\023\275\241G\223\275\3113\035\276\032Dy\276H\214\265\275Q\346&\275\267\006d\276\n\3644\276\271\324~=]\0160\276\215\273\355\275#\001\324<\021\243;>\205HE\274\273\"\026\276\367\213\252=\312\000)>hE\030\276\323\036\307\275\021\r\336=\207g\210>M\354\224\275\212\345R=\342\211[>`\375\327<\214f\">\363\\\326\275E\254V\274(\264\225\273\312\306\'\275\376\006\303\276\2167\255=\223\251r\275\235V\262\274\236FN\274\230u\306<\022\375\350\274Rc\021\275W\200\363\274\252|%\276\004\026\273=+V\337\275N\331d\275K\262~\275\366Z#\275,3,\276b\031\342>\345N\032\276\376U\014=\300B\350\274\205\201)\276\026w\356=0\037\204=\254a\244\275\366\227H\276Z\343\262=\303\223\261\276*I\324=\202\330,=\356\014e\275\020\"\026>\365s\262\275\203\222\034\275\010\253\022>\'\327\204\274\331\021\204=~\000]\273+!|<+&\303\275/\0222\275\241JP<\3153S\276\335[\372=\257.?\276\207hR>Py\203\274<\027s\274\311\024\364\275\t\t\222\274k\3064\274\021@\205\275\317\215\373\275w0-\2758\034i=6\177<=Q\3526\275g\214g\276\231\317\030\274\214\226O\274tG`\275\261\241&<Kw\240<\020\3306>9\214\016\276\"\361u=\004\324\230\275\356w?=Ks\274=\247~\007>\214\003\024=\263\213\362\275c\340c=\307lM\276\255GN=\204}\202=]sY\275\201\373g>IL\t\276\353\242{;x\234\350\275\t=\345=\233\255\207\275\263X\270\275\324\031\240\275\233\270Z=AC \275\232C\'>\031\\\001>\205\017\361\275\332\345\201=\245\276\017>u\315\304\273\352\201\327\274jq\035\275\265J\222\275{\215\371\275\263\374\347\275\250yQ>\227\n\257\275Y%\177\276x77\276\347}b\276\277\020\037\276x\305\212=}b\234\275pX\252\275\347\305\375=\004\341\234\274\006E/=\311;o=a3,=\373]Y:a\300\205\273\276\346\247\275]\t\271\275j\267\326\275\037Z \274\263\267\233\27531\326<\257\"\320\275\201\376C\276\336\002,\276\337\322\223\275\353\305/\275(\223\022\276\177>\206\274\320`Z\2754\250\232\275\277=7\276\204\2126>\206\026w\273\212\255[\276\266\334\203\276(eQ=T=U>\020\257\371=\347\006D=\"\211\320<\302^\037\273\261\376\024\276E\036\267\275\216\255q>\207~\257\274\014\032\215=\006\374\240\274\216\017\315<W\331\305;>\244,\275\324\272\034\275\025\232u\276\335\272\026\276\272\2117<\246\213\255\275C\376{\276\034\345>\276Y\347z\275`a\006\275\264}r\274g\320\221\275\"\340\272\274\017\367\267;\221\026\t=\334\tk\274\262\223j>\264\276\277\275#L\272;+\250\255=\205\224N\276f\275A\276fr]\275\3415\214\275\303\244\317\275\226\303\357=\270\311\364<\374u\365=\361\023\256\273\337\256\333\275\016\362\233=\305%\233;\025T\340\274\231q\232>5\314}\276I8\022\275\244Qy\275G\3158\276\003\321#\2765\341$\276\205\313\243\276Y\251a>Y\222q=\273\242\357\273\277\277\324<\353\214F\275\236\374\246=C\272L;\255?\004\276\221-J\272\223\271\007>\235*\010\274\020`\000\275\366\004\320<^6\362\274\226R\036\275Y\371\364\274U\331\352=\002\'\313<\370\003\034>*P\263\274}=\007>\026{\364;7\000\350=\037\001j\275\241\242\367\275|\245\255\274>\320\335\275\322\343,\276^\374]\276\325\333\206\273\0101\207>B\214\352\273%\322\244\275\254\353\301\275\327I\306=\201\341z\276\224\311\232\274\002\020\211=\330Df=a\372\257<\005\271\353\275\005F3\276\023#\215=\026\335@\275`\277\272\275fi\242<Qi\206<\2320n<\321\024\220>\346fK>\01409\274\354\263\'=\247\245\342<\215l\307=\205\237\310\274Sl\253=\227$\256\273\344?*>\275\020\240\275\0050K\275\347\334W\275\376i%\276\014\354*=Jl\216\275\207\004\306=\242\355b\276\3333Q=\314\230\021\273 \237\206\272\343\262V>\311\276\262=\261\3656\275\377c\241;\350:\035\275%2\027>\014\010,\276\376\370\027\276\261!#\275h,\324=v\241.\274\024Y(\276\003\001<\275\267 \341\275*\334e>\351V\275\273|\233\331\275\204\336\271=\360sY\273\235\177\032\275\316\344H\276\250\021\274\273\370J\266=\222Y\274\2739w8=t\272?=\033E\217=\301\235\330\273\232!\317=?\230\233\275\016|\016>\333\327\023\275\353\r\017\2755\033\336=\237 \212=C\314\263=\3271\033\276\320\310?=SM\247<\013H^>v\231\364=\362+\023=\374o\256\27418\326\272\3213\304=\310\335c>\327\247\243;\224\353b=\301\306\201<\223\275\024>\315\001\261<,\3048=\201\030\225\2759c\332\275\262\347\030\276\370q\207=\320\004#\275\005\332U>\210\205\2569\001\260\242;\324Bc>\233\340\353=b\300k\274\366\253\036\275\005\006U>\215\361\033=\231\224\260\275W\346\n=^fC=\026\304\254\275\211\317\270<o\360\315=\242\000\340\275\367f >\354\374\331<*\365\327\275R\244\'=\362\262\206=\306\252\343\275\364n\362\275\351+U\2742-\\=\314\373H\275^\334{>\037c\004\276\373G\337\275\031gq=\001\334\312=\006|\n\275\301T\">Eq\310\275E\307j\275\226\034\311=G&\377<L\311w=[\0361>&\201\376=b\311\224\275$z\016\275i50\274\001\371\253\275\357\225\210=H56\2748\004\264=L%\344=\342\177W\275\362\271\001>R\2336>w\2466\276\354\334\312\275\"Q\215=h\255\">\252\243\241\273\255\372\223>\335h\037=\313:;\276\245\030\002\276\212\342\025\273=\276\240\275\310\'\025<\333\353\017\271\036],>s\016\340;Hh\006\275\310\031\330\274xz+>(\273 \275\202\370\021\275\227x\311\275c\221\n\276\273:y=\371\345\333:F\313\366=R\336\026\274\330\353\004\275\324\354\027\276xZ\006\276\276\326\257;\014\324\260\274N\207\321\273\n\376\325=)\305\302\273E\255\243\275\007X\251=Do\006\276,\254\344\275\262\031\024\276\225\205t\275aP\250=\326\245\276=~\207\343\275bh\340\275\360\024\252=b\323\204=\355,v>\037\244\316=\235\211N=j\321\224<\333\366i=9\271\355\275i\267\204\276\304*\347\275\271\362v\275NX\337\275\317\241\024=D\274\343\275\354&\353\275 \312@><\233p<\005\327\250\275\202Iu\275\214\314\022>=cP\276\220\257\\\276S\350\245\275\262J\272\275\322S\227\276_2\201=cq<\276\344)J\276A\2267\275`\007h=nP-=C\325\022\276\376o\206<\2178\261\272\214\217\\\275_:\252\273n\n\022=\004\261x\274\332\256\022>D\177+\276\374\031X\275\022\344\277\275\371\354\246=\'\336\022>\276/\274\273\001a3<\034V\r\276\377\222\232\2751\332\311\2753\236.\275\207\310\257\275s\321\004>/\323\227\275yt\251\274\0011\206\275\322\3600\275\237\240\265:\235\017\261\274o\r\255\274\366\313n\275\275\\u\275\025\331,>\027\372\214\275\300\177o>\\\352\022>kIc\275\306\356\236\275X\346Y\276u\377\211={l\376\275\'\031\276=\213;-\276~\213t\276\271n}\2750\355\251=\376d\000\275\323C\267\273\006\242W\276H\000r<u\224\223\276\304_\031=\252\000\201\276\007\267L=>3V>\274\325\226\275m\017\t=)n\232\275\312\n\327\275,\001I\276vn\006\275\323<\337\275\222\'\034\276r\363\216=\344.\362=\241\017v\275\236\314M\276\013YX\275\036\241c\276\322\274`<J.Y;p>\305\275\345y&>^\213\335=\271\352\000>\250!\225=\222\025\371=\201|C\274m\302\211\275J\347+>|q\260\275\214p\340<.7\017\276iU\240;\327$\006>im\003>/\004\016\275\357\030^\274\206b\217\275jT\222\274\356c\262\276\204\3120=G^\027=\004\267n=j\314\211> I\017\276\346\210y7\317.\025\276\351\016\242=du\206\275o\301%=\007\004o\275O\235\020;\200Q\340=\255\000\324\275\304\267\005\275\341\200\273>|\024\3558\372j\026>#:\004\275p\023\000\2752\271\240=\r\356\322;\270\210\027\274 \212{=\275\310\232<\241\252\241=\257\001\257=1\316\341=I\212>=\317\032\211\275\207\014\005\275\274D\334\275\214\036_>\215u\204<\020\264\312=\327\315\320=\025\023\246\275\227\314\321=\257\250\035\275t\007\366\275\374\310\357=T-\250\275j>T=\237\276\320\275\243\242\\\273\\\272\004:w\223\214<\225\370Z=\260\335B>\222*\206;T\216\340=\243\334\334<\032\202/\275\260\030\234<Z\372\206\275[H\334\274.Ej;@\317\242=\247\357\035\276\024~\333=\254ET>1A\016\275\t\371\000\274gF\321\274c\325\364=v\203\031\276\353\365\236\275\277\247\005>\214\t\214\274\361QW\274\202\221-\275\020\031\355=\303\377\224<\332\267\225<\206\353 =\233\203\224>1y6=\307\337\364\275\365qr=\'#\364=\271,\316\275\373\303\027>\007\365[\276\342\277\316=\277R\312=\265\342\261\275.5\314=\302\225\330=\213D\003\276\334\344\245\2727J\360=\224\200S\274{\213\204<\276\004\010=\277\026\372=YC\247=1E(\275\\\330&\276,\271\315=$\305\004>\334:\'=9J*<|\366w\275M;\034=\316\366\275=\027\201T=\035\243\262\275\220\037\245\275c\213\366="
      }
    }
  }
}
node {
  name: "sequential/lstm_1/Read_1/ReadVariableOp"
  op: "Identity"
  input: "sequential/lstm_1/Read_1/ReadVariableOp/resource"
  attr {
    key: "T"
    value {
      type: DT_FLOAT
    }
  }
}
node {
  name: "sequential/lstm_1/Identity_1"
  op: "Identity"
  input: "sequential/lstm_1/Read_1/ReadVariableOp"
  attr {
    key: "T"
    value {
      type: DT_FLOAT
    }
  }
}
node {
  name: "Func/sequential/lstm_1/PartitionedCall/input/_4"
  op: "Identity"
  input: "sequential/lstm_1/Identity_1"
  attr {
    key: "T"
    value {
      type: DT_FLOAT
    }
  }
}
node {
  name: "sequential/lstm_1/PartitionedCall/while/enter/_22"
  op: "Enter"
  input: "Func/sequential/lstm_1/PartitionedCall/input/_4"
  attr {
    key: "T"
    value {
      type: DT_FLOAT
    }
  }
  attr {
    key: "frame_name"
    value {
      s: "sequential/lstm_1/PartitionedCall/while"
    }
  }
  attr {
    key: "is_constant"
    value {
      b: false
    }
  }
  attr {
    key: "parallel_iterations"
    value {
      i: 32
    }
  }
}
node {
  name: "unused_control_flow_input_9"
  op: "Placeholder"
  attr {
    key: "dtype"
    value {
      type: DT_FLOAT
    }
  }
  attr {
    key: "shape"
    value {
      shape {
        unknown_rank: true
      }
    }
  }
}
node {
  name: "Func/sequential/lstm_1/PartitionedCall/while/body/_12/output/_105"
  op: "Identity"
  input: "Func/sequential/lstm_1/PartitionedCall/while/body/_12/input/_94"
  attr {
    key: "T"
    value {
      type: DT_FLOAT
    }
  }
}
node {
  name: "sequential/lstm_1/PartitionedCall/while/next_iteration/_69"
  op: "NextIteration"
  input: "Func/sequential/lstm_1/PartitionedCall/while/body/_12/output/_105"
  input: "^Func/sequential/lstm_1/PartitionedCall/while/body/_12/output_control_node/_107"
  attr {
    key: "T"
    value {
      type: DT_FLOAT
    }
  }
}
node {
  name: "sequential/lstm_1/PartitionedCall/while/merge/_33"
  op: "Merge"
  input: "sequential/lstm_1/PartitionedCall/while/enter/_22"
  input: "sequential/lstm_1/PartitionedCall/while/next_iteration/_69"
  attr {
    key: "N"
    value {
      i: 2
    }
  }
  attr {
    key: "T"
    value {
      type: DT_FLOAT
    }
  }
}
node {
  name: "unused_control_flow_input_10"
  op: "Placeholder"
  attr {
    key: "dtype"
    value {
      type: DT_BOOL
    }
  }
  attr {
    key: "shape"
    value {
      shape {
      }
    }
  }
}
node {
  name: "sequential/lstm_1/PartitionedCall/while/Func/sequential/lstm_1/PartitionedCall/input/_4_switch/_45"
  op: "Switch"
  input: "sequential/lstm_1/PartitionedCall/while/merge/_33"
  input: "sequential/lstm_1/PartitionedCall/while/LoopCond/_35"
  attr {
    key: "T"
    value {
      type: DT_FLOAT
    }
  }
}
node {
  name: "Func/sequential/lstm_1/PartitionedCall/while/body/_12/input/_94"
  op: "Identity"
  input: "sequential/lstm_1/PartitionedCall/while/Func/sequential/lstm_1/PartitionedCall/input/_4_switch/_45:1"
  input: "^Func/sequential/lstm_1/PartitionedCall/while/body/_12/input_control_node/_84"
  attr {
    key: "T"
    value {
      type: DT_FLOAT
    }
  }
}
node {
  name: "sequential/lstm_1/PartitionedCall/time"
  op: "Const"
  attr {
    key: "dtype"
    value {
      type: DT_INT32
    }
  }
  attr {
    key: "value"
    value {
      tensor {
        dtype: DT_INT32
        tensor_shape {
        }
        int_val: 0
      }
    }
  }
}
node {
  name: "sequential/lstm_1/PartitionedCall/while/enter/_15"
  op: "Enter"
  input: "sequential/lstm_1/PartitionedCall/time"
  attr {
    key: "T"
    value {
      type: DT_INT32
    }
  }
  attr {
    key: "frame_name"
    value {
      s: "sequential/lstm_1/PartitionedCall/while"
    }
  }
  attr {
    key: "is_constant"
    value {
      b: false
    }
  }
  attr {
    key: "parallel_iterations"
    value {
      i: 32
    }
  }
}
node {
  name: "unused_control_flow_input_11"
  op: "Placeholder"
  attr {
    key: "dtype"
    value {
      type: DT_INT32
    }
  }
  attr {
    key: "shape"
    value {
      shape {
        unknown_rank: true
      }
    }
  }
}
node {
  name: "unused_control_flow_input_12"
  op: "Placeholder"
  attr {
    key: "dtype"
    value {
      type: DT_BOOL
    }
  }
  attr {
    key: "shape"
    value {
      shape {
      }
    }
  }
}
node {
  name: "sequential/lstm_1/PartitionedCall/while/sequential/lstm_1/PartitionedCall/time_switch/_38"
  op: "Switch"
  input: "sequential/lstm_1/PartitionedCall/while/merge/_26"
  input: "sequential/lstm_1/PartitionedCall/while/LoopCond/_35"
  attr {
    key: "T"
    value {
      type: DT_INT32
    }
  }
}
node {
  name: "Func/sequential/lstm_1/PartitionedCall/while/body/_12/input/_87"
  op: "Identity"
  input: "sequential/lstm_1/PartitionedCall/while/sequential/lstm_1/PartitionedCall/time_switch/_38:1"
  input: "^Func/sequential/lstm_1/PartitionedCall/while/body/_12/input_control_node/_84"
  attr {
    key: "T"
    value {
      type: DT_INT32
    }
  }
}
node {
  name: "sequential/lstm_1/PartitionedCall/while/body/_12/while/add_2/y"
  op: "Const"
  input: "^Func/sequential/lstm_1/PartitionedCall/while/body/_12/input_control_node/_84"
  attr {
    key: "dtype"
    value {
      type: DT_INT32
    }
  }
  attr {
    key: "value"
    value {
      tensor {
        dtype: DT_INT32
        tensor_shape {
        }
        int_val: 1
      }
    }
  }
}
node {
  name: "sequential/lstm_1/PartitionedCall/while/body/_12/while/add_2"
  op: "AddV2"
  input: "Func/sequential/lstm_1/PartitionedCall/while/body/_12/input/_87"
  input: "sequential/lstm_1/PartitionedCall/while/body/_12/while/add_2/y"
  attr {
    key: "T"
    value {
      type: DT_INT32
    }
  }
}
node {
  name: "sequential/lstm_1/PartitionedCall/while/body/_12/while/Identity_2"
  op: "Identity"
  input: "sequential/lstm_1/PartitionedCall/while/body/_12/while/add_2"
  attr {
    key: "T"
    value {
      type: DT_INT32
    }
  }
}
node {
  name: "Func/sequential/lstm_1/PartitionedCall/while/body/_12/output/_98"
  op: "Identity"
  input: "sequential/lstm_1/PartitionedCall/while/body/_12/while/Identity_2"
  attr {
    key: "T"
    value {
      type: DT_INT32
    }
  }
}
node {
  name: "sequential/lstm_1/PartitionedCall/while/next_iteration/_62"
  op: "NextIteration"
  input: "Func/sequential/lstm_1/PartitionedCall/while/body/_12/output/_98"
  input: "^Func/sequential/lstm_1/PartitionedCall/while/body/_12/output_control_node/_107"
  attr {
    key: "T"
    value {
      type: DT_INT32
    }
  }
}
node {
  name: "sequential/lstm_1/PartitionedCall/while/merge/_26"
  op: "Merge"
  input: "sequential/lstm_1/PartitionedCall/while/enter/_15"
  input: "sequential/lstm_1/PartitionedCall/while/next_iteration/_62"
  attr {
    key: "N"
    value {
      i: 2
    }
  }
  attr {
    key: "T"
    value {
      type: DT_INT32
    }
  }
}
node {
  name: "sequential/lstm_1/PartitionedCall/while/loop_counter"
  op: "Const"
  attr {
    key: "dtype"
    value {
      type: DT_INT32
    }
  }
  attr {
    key: "value"
    value {
      tensor {
        dtype: DT_INT32
        tensor_shape {
        }
        int_val: 0
      }
    }
  }
}
node {
  name: "sequential/lstm_1/PartitionedCall/while/enter/_13"
  op: "Enter"
  input: "sequential/lstm_1/PartitionedCall/while/loop_counter"
  attr {
    key: "T"
    value {
      type: DT_INT32
    }
  }
  attr {
    key: "frame_name"
    value {
      s: "sequential/lstm_1/PartitionedCall/while"
    }
  }
  attr {
    key: "is_constant"
    value {
      b: false
    }
  }
  attr {
    key: "parallel_iterations"
    value {
      i: 32
    }
  }
}
node {
  name: "unused_control_flow_input_13"
  op: "Placeholder"
  attr {
    key: "dtype"
    value {
      type: DT_INT32
    }
  }
  attr {
    key: "shape"
    value {
      shape {
        unknown_rank: true
      }
    }
  }
}
node {
  name: "unused_control_flow_input_14"
  op: "Placeholder"
  attr {
    key: "dtype"
    value {
      type: DT_BOOL
    }
  }
  attr {
    key: "shape"
    value {
      shape {
      }
    }
  }
}
node {
  name: "sequential/lstm_1/PartitionedCall/while/sequential/lstm_1/PartitionedCall/while/loop_counter_switch/_36"
  op: "Switch"
  input: "sequential/lstm_1/PartitionedCall/while/merge/_24"
  input: "sequential/lstm_1/PartitionedCall/while/LoopCond/_35"
  attr {
    key: "T"
    value {
      type: DT_INT32
    }
  }
}
node {
  name: "Func/sequential/lstm_1/PartitionedCall/while/body/_12/input/_85"
  op: "Identity"
  input: "sequential/lstm_1/PartitionedCall/while/sequential/lstm_1/PartitionedCall/while/loop_counter_switch/_36:1"
  input: "^Func/sequential/lstm_1/PartitionedCall/while/body/_12/input_control_node/_84"
  attr {
    key: "T"
    value {
      type: DT_INT32
    }
  }
}
node {
  name: "sequential/lstm_1/PartitionedCall/while/body/_12/while/add_3/y"
  op: "Const"
  input: "^Func/sequential/lstm_1/PartitionedCall/while/body/_12/input_control_node/_84"
  attr {
    key: "dtype"
    value {
      type: DT_INT32
    }
  }
  attr {
    key: "value"
    value {
      tensor {
        dtype: DT_INT32
        tensor_shape {
        }
        int_val: 1
      }
    }
  }
}
node {
  name: "sequential/lstm_1/PartitionedCall/while/body/_12/while/add_3"
  op: "AddV2"
  input: "Func/sequential/lstm_1/PartitionedCall/while/body/_12/input/_85"
  input: "sequential/lstm_1/PartitionedCall/while/body/_12/while/add_3/y"
  attr {
    key: "T"
    value {
      type: DT_INT32
    }
  }
}
node {
  name: "sequential/lstm_1/PartitionedCall/while/body/_12/while/Identity"
  op: "Identity"
  input: "sequential/lstm_1/PartitionedCall/while/body/_12/while/add_3"
  attr {
    key: "T"
    value {
      type: DT_INT32
    }
  }
}
node {
  name: "Func/sequential/lstm_1/PartitionedCall/while/body/_12/output/_96"
  op: "Identity"
  input: "sequential/lstm_1/PartitionedCall/while/body/_12/while/Identity"
  attr {
    key: "T"
    value {
      type: DT_INT32
    }
  }
}
node {
  name: "sequential/lstm_1/PartitionedCall/while/next_iteration/_60"
  op: "NextIteration"
  input: "Func/sequential/lstm_1/PartitionedCall/while/body/_12/output/_96"
  input: "^Func/sequential/lstm_1/PartitionedCall/while/body/_12/output_control_node/_107"
  attr {
    key: "T"
    value {
      type: DT_INT32
    }
  }
}
node {
  name: "sequential/lstm_1/PartitionedCall/while/merge/_24"
  op: "Merge"
  input: "sequential/lstm_1/PartitionedCall/while/enter/_13"
  input: "sequential/lstm_1/PartitionedCall/while/next_iteration/_60"
  attr {
    key: "N"
    value {
      i: 2
    }
  }
  attr {
    key: "T"
    value {
      type: DT_INT32
    }
  }
}
node {
  name: "Func/sequential/lstm_1/PartitionedCall/while/cond/_11/input_control_node/_71"
  op: "NoOp"
  input: "^sequential/lstm_1/PartitionedCall/while/merge/_24"
}
node {
  name: "Func/sequential/lstm_1/PartitionedCall/while/cond/_11/input/_74"
  op: "Identity"
  input: "sequential/lstm_1/PartitionedCall/while/merge/_26"
  input: "^Func/sequential/lstm_1/PartitionedCall/while/cond/_11/input_control_node/_71"
  attr {
    key: "T"
    value {
      type: DT_INT32
    }
  }
}
node {
  name: "Func/sequential/lstm_1/PartitionedCall/while/cond/_11/input/_78"
  op: "Identity"
  input: "sequential/lstm_1/PartitionedCall/while/merge/_30"
  input: "^Func/sequential/lstm_1/PartitionedCall/while/cond/_11/input_control_node/_71"
  attr {
    key: "T"
    value {
      type: DT_INT32
    }
  }
}
node {
  name: "sequential/lstm_1/PartitionedCall/while/cond/_11/while/Less"
  op: "Less"
  input: "Func/sequential/lstm_1/PartitionedCall/while/cond/_11/input/_74"
  input: "Func/sequential/lstm_1/PartitionedCall/while/cond/_11/input/_78"
  attr {
    key: "T"
    value {
      type: DT_INT32
    }
  }
}
node {
  name: "sequential/lstm_1/PartitionedCall/while/cond/_11/while/Identity"
  op: "Identity"
  input: "sequential/lstm_1/PartitionedCall/while/cond/_11/while/Less"
  attr {
    key: "T"
    value {
      type: DT_BOOL
    }
  }
}
node {
  name: "Func/sequential/lstm_1/PartitionedCall/while/cond/_11/output/_83"
  op: "Identity"
  input: "sequential/lstm_1/PartitionedCall/while/cond/_11/while/Identity"
  attr {
    key: "T"
    value {
      type: DT_BOOL
    }
  }
}
node {
  name: "sequential/lstm_1/PartitionedCall/while/LoopCond/_35"
  op: "LoopCond"
  input: "Func/sequential/lstm_1/PartitionedCall/while/cond/_11/output/_83"
}
node {
  name: "sequential/lstm_1/Shape"
  op: "Shape"
  input: "x"
  attr {
    key: "T"
    value {
      type: DT_FLOAT
    }
  }
  attr {
    key: "out_type"
    value {
      type: DT_INT32
    }
  }
}
node {
  name: "sequential/lstm_1/strided_slice/stack"
  op: "Const"
  attr {
    key: "dtype"
    value {
      type: DT_INT32
    }
  }
  attr {
    key: "value"
    value {
      tensor {
        dtype: DT_INT32
        tensor_shape {
          dim {
            size: 1
          }
        }
        int_val: 0
      }
    }
  }
}
node {
  name: "sequential/lstm_1/strided_slice/stack_1"
  op: "Const"
  attr {
    key: "dtype"
    value {
      type: DT_INT32
    }
  }
  attr {
    key: "value"
    value {
      tensor {
        dtype: DT_INT32
        tensor_shape {
          dim {
            size: 1
          }
        }
        int_val: 1
      }
    }
  }
}
node {
  name: "sequential/lstm_1/strided_slice/stack_2"
  op: "Const"
  attr {
    key: "dtype"
    value {
      type: DT_INT32
    }
  }
  attr {
    key: "value"
    value {
      tensor {
        dtype: DT_INT32
        tensor_shape {
          dim {
            size: 1
          }
        }
        int_val: 1
      }
    }
  }
}
node {
  name: "sequential/lstm_1/strided_slice"
  op: "StridedSlice"
  input: "sequential/lstm_1/Shape"
  input: "sequential/lstm_1/strided_slice/stack"
  input: "sequential/lstm_1/strided_slice/stack_1"
  input: "sequential/lstm_1/strided_slice/stack_2"
  attr {
    key: "Index"
    value {
      type: DT_INT32
    }
  }
  attr {
    key: "T"
    value {
      type: DT_INT32
    }
  }
  attr {
    key: "begin_mask"
    value {
      i: 0
    }
  }
  attr {
    key: "ellipsis_mask"
    value {
      i: 0
    }
  }
  attr {
    key: "end_mask"
    value {
      i: 0
    }
  }
  attr {
    key: "new_axis_mask"
    value {
      i: 0
    }
  }
  attr {
    key: "shrink_axis_mask"
    value {
      i: 1
    }
  }
}
node {
  name: "Func/sequential/lstm_1/PartitionedCall/while/body/_12/output_control_node/_107"
  op: "NoOp"
  input: "^Func/sequential/lstm_1/PartitionedCall/while/body/_12/input_control_node/_84"
}
node {
  name: "sequential/lstm_1/Read_2/ReadVariableOp/resource"
  op: "Const"
  attr {
    key: "dtype"
    value {
      type: DT_FLOAT
    }
  }
  attr {
    key: "value"
    value {
      tensor {
        dtype: DT_FLOAT
        tensor_shape {
          dim {
            size: 128
          }
        }
        tensor_content: "??v;\267UH\275\203p\n<\2425\224\275\376-\303\2759\355\243\275\220z\251\275\203\033\247\274\204\262\273\275\337\341\373\275\305-\237\275\025\274\260<\307&\323\275\202\373U\275\026W\033\275\003\360\227\275\335\376\366\275\275KL\275\014\340\217\275\260 W\275\"\331\264\275;G\n\275g\222\233\275c\2423\275\362\244F\274\341\321\320\274\246\027\013\275o\"+\273\206\303\252:\022\263\211\274\351\234\002\275\243\036\034\275Ta\202?k\236t?\326\350\201?\214\227g?\303\327\201?\251\'a?\0244a?\207+u?\014\030l?\026&d?\310\"\210?\3477\203?\2219_?a\211y?\'1\177?:_y?\273z[?]\300|?~T\216?I\254y?\244\245v?=\230u?a(]?\367Wy?\317\\\201?\336\213w?r x?\371\010\204?\3161{?\252W\201?\317\213}?d\277s?\031\262\256\273^#[\274\215\266%=q\202g;V\233\030\275\334~k<~6\370\274p]\324\274\341\262;\275e\355A\275\332\254\335<|\217@\2756&\260\274\326\211\261\275_\250\017\274Z\246U=\200\320\216<\035&\260\272\371\267q=\275\374R=X3\031;\021C\r<\273\t\000\275u\233\032\272\"\321\206\272\254\210%\274\362\246S=\263.\017=\245*^\274J\310N<\363\325\256\274\017\304\206;a6\214\275!H\245\275\263\324\006=.\r\231\275\265\334\207<\261\346\212\275k\217\374\275\323e\r\276w\352W\274R\256\326\275\346\362.\275U\321\271<\332\035E\276\035\373\003\274(Y\260=\016@\034\275d\013\251\275\222\272\353\274\270\371\234<d\261\237\275\347\333\256\275\375\023\310\2746t\366\275\220\262\226\275\272\0109\2745p\250\275\212}\322\274\330\220[;\272cY\275\303\215\320\275\013R-\275\263}\017\275"
      }
    }
  }
}
node {
  name: "sequential/lstm_1/Read_2/ReadVariableOp"
  op: "Identity"
  input: "sequential/lstm_1/Read_2/ReadVariableOp/resource"
  attr {
    key: "T"
    value {
      type: DT_FLOAT
    }
  }
}
node {
  name: "sequential/lstm_1/Identity_2"
  op: "Identity"
  input: "sequential/lstm_1/Read_2/ReadVariableOp"
  attr {
    key: "T"
    value {
      type: DT_FLOAT
    }
  }
}
node {
  name: "Func/sequential/lstm_1/PartitionedCall/input/_5"
  op: "Identity"
  input: "sequential/lstm_1/Identity_2"
  attr {
    key: "T"
    value {
      type: DT_FLOAT
    }
  }
}
node {
  name: "sequential/lstm_1/PartitionedCall/while/enter/_23"
  op: "Enter"
  input: "Func/sequential/lstm_1/PartitionedCall/input/_5"
  attr {
    key: "T"
    value {
      type: DT_FLOAT
    }
  }
  attr {
    key: "frame_name"
    value {
      s: "sequential/lstm_1/PartitionedCall/while"
    }
  }
  attr {
    key: "is_constant"
    value {
      b: false
    }
  }
  attr {
    key: "parallel_iterations"
    value {
      i: 32
    }
  }
}
node {
  name: "unused_control_flow_input_15"
  op: "Placeholder"
  attr {
    key: "dtype"
    value {
      type: DT_FLOAT
    }
  }
  attr {
    key: "shape"
    value {
      shape {
        unknown_rank: true
      }
    }
  }
}
node {
  name: "Func/sequential/lstm_1/PartitionedCall/while/body/_12/output/_106"
  op: "Identity"
  input: "Func/sequential/lstm_1/PartitionedCall/while/body/_12/input/_95"
  attr {
    key: "T"
    value {
      type: DT_FLOAT
    }
  }
}
node {
  name: "sequential/lstm_1/PartitionedCall/while/next_iteration/_70"
  op: "NextIteration"
  input: "Func/sequential/lstm_1/PartitionedCall/while/body/_12/output/_106"
  input: "^Func/sequential/lstm_1/PartitionedCall/while/body/_12/output_control_node/_107"
  attr {
    key: "T"
    value {
      type: DT_FLOAT
    }
  }
}
node {
  name: "sequential/lstm_1/PartitionedCall/while/merge/_34"
  op: "Merge"
  input: "sequential/lstm_1/PartitionedCall/while/enter/_23"
  input: "sequential/lstm_1/PartitionedCall/while/next_iteration/_70"
  attr {
    key: "N"
    value {
      i: 2
    }
  }
  attr {
    key: "T"
    value {
      type: DT_FLOAT
    }
  }
}
node {
  name: "sequential/lstm_1/PartitionedCall/while/Func/sequential/lstm_1/PartitionedCall/input/_5_switch/_46"
  op: "Switch"
  input: "sequential/lstm_1/PartitionedCall/while/merge/_34"
  input: "sequential/lstm_1/PartitionedCall/while/LoopCond/_35"
  attr {
    key: "T"
    value {
      type: DT_FLOAT
    }
  }
}
node {
  name: "Func/sequential/lstm_1/PartitionedCall/while/body/_12/input/_95"
  op: "Identity"
  input: "sequential/lstm_1/PartitionedCall/while/Func/sequential/lstm_1/PartitionedCall/input/_5_switch/_46:1"
  input: "^Func/sequential/lstm_1/PartitionedCall/while/body/_12/input_control_node/_84"
  attr {
    key: "T"
    value {
      type: DT_FLOAT
    }
  }
}
node {
  name: "sequential/lstm_1/Read/ReadVariableOp/resource"
  op: "Const"
  attr {
    key: "dtype"
    value {
      type: DT_FLOAT
    }
  }
  attr {
    key: "value"
    value {
      tensor {
        dtype: DT_FLOAT
        tensor_shape {
          dim {
            size: 9
          }
          dim {
            size: 128
          }
        }
        tensor_content: "\004\374\211>#\305\020\276\303X\241\275\270\'C>\350\252\311\275\000\n)>\256A\003\2764\223\344\275\342A\255\275g\317\272\275>\311\251=\3500K=\003\017=\276p\222i>\323*\356=\023y\030\276\0245\324<\227\356=\2761\036\031\275\024\014\000>\361>\\\276A!y\274\251ze>\256\334\002\276<)\025<_z=\276\351\324D>\351\007\300\275\255\263%>{\251\200=|e\331\273\375\327*\275DsS>\226\222\356=g\360\224\275\"\345\037\276\351m\212\275\267\216\213\275\221\252\225\275Wr\033\275\207s\001>\354\275\024>\t\030\023\276l?\215=Ie\024\276^\201\006\276\305\236\210<\000\303\036>\323\0321>~\242\321\274\247\277L\275\360\375\216>\327:\235<\rd\234\275#dH=:U\251\274\272\327H\276%j\237\275w}\262\275SR\376=\030\272Z>\375\341T>\346\025\253\273~:E>\357`\204\276v\'I=\253\241\037\275)\232\300\275nIk\275\037\005\033\276B\367\322\274\254L\016>\367\325`<\250\341K\276\353\033\221\273\037\271\307\274\247\374*\276\230\334\335\275o\316\365\274\3349\024>g]\037\273,\364N\275n\311t<\307a\216=\231_\017\275\350B\311\274w\251\212\275\n\216\336=\024F\003>\235\246\316\275\307q&>\3748\271\274\223z-\2767\315\032\274*w\003\276\000\257\016>\010\016F\276\343\356&>p\222\320\275A]\336\275\nj\357\273\326{\023>5\'2<\2642$>?V/>\r\2155=\307i\211\274\307\245\317=<D\327=\23483\276\372\276\340\275;\256\313<7\316\270=5\273#\276\222\270\277<\330WA\275i\352\010\275T\356\010\276\204\022[\274v\320\236\275\314K\005\275\344\244.\276\210:Z>\273\330\267=2\0266\276\324\356t\275\010\203\034<(\203L>\262NZ\274==K\276\375\373t=\341\243\254=R\374\324\275P\234\005>\267\231\361\275\222\227,\276\357>`>q\320\215>h\354\n>\357\335v<b\302 >uYN>\307:1>\342A\244\275>\224\033\275%2\274\275\t\246\226;s,\357\275\263\020a=_&N>\202ju>\367\217\323<\271\206\210>N1\345\275\372:?>P\342}>-hY>\323\000\002\276\232\3529>\336\232\334=\257M\240\274X\3200\276\352\364V=\273\002z>f\340\277\275iS\255\275\261\203\224=\035M@\276\334\026)>\260^\353=-r\036\276J\242\004\275\343\320v=G$$\276\000.Q\276m\344\301<r\021\241>\364O\364=q\323>=\005\370\332=D\374Y>n\036m\275L.0\275\'o\'\275<\246t>\001\022:>D\327_>\253=M>V/\245\275B(\002\275G#\023\276[\240m>\265)c>w\316\374\275\300\215\227=J\363\232=63@<rH,\276\021\205;\276*A`>D67=\221r5\276\200\347\265=\307)\231\275\335\235g\275\344\346\021\276\035W\203<\212t\007=`\r\232=\007\332\250=\270\006g=A\226\255\274:\037\n>:\375\004>\030\037!\276\240\022\331\275\200fY>\303\265\210\275\0050\024>\346\346,>e=\374\275hx\215\276\352\013\275\275C\350[\276\373\022\311=\022Aj>\354\271S=\217\201\351\275\272\351\t\275\277}V\274PP\002<\025\320l=\225\2065>\331\273\345=Z9\351=EF\255\275\336>\306\274;\361\270=~\331\031=P\275T>;?\321\274\350\223\302\275{PG=\266\264->\342\236\270=\211\222*\276J\374&\274\336b=\275\377\374\356;\000\023\205>\005\375\007\276\324\203.>\001&3\276\020\302\032\2752\237\263=k\375J>\223\035\275\274\230\201\204>\310\244i\275:\\\006>`\335\271>\214\375\026\276\3355#\276\274\010U>\354\257\004=x)\265=j/\215\276\332@\t\276\271P\360\275\034-\225\2756\003\213>\311\376\200=\216!S=6\357\215>\274O8\276}n\272\275\276C\300=\303\203\027>*\357?<\242\033\304\275\253%\204=\275\215\327\274\177\3013>j\206g\274\307WL>\251\275/\276\213\266\256=~\n\266\275\303A\361\275\202\r\252=`e[>\215\363v>\332HR\275\314\005\t\276\215\025\344\275\230pE\274dL\020>\242\177\226\275\332\n\002\273\210\016\242=\242\303\364=\333V\256=`\270\265=P,~>STp\275\220\244%>\t\236e\276\335\212:=b\334\031\274:\247\362<\025\\*\275o;(\276s\331r\276\201\355\020>\214h\352=\355\260D\276\016\247\356\275Z\242\320=\013.\226=i\265\372=\364c\312\275\233\375\356\274&\247\336>\311\205!;\233x\206\275\232\325\303=\354\220\031=,\006n\275\214\350\360\274pWi<C|\361\275\034\002\314\273\224\314\277;\366\013\201>\225\261\224\275\326U\362<$\017\216\275\307\303\336\275\272\202\225\276/\200-\275\002]a\276wK~<|\343\271<\203\205\274\275\342\220\207\275/`\030\274\312\370\310\276so\252\275\352\207\204>v-\373=\310N\006\276\266\352L=\005\033\002\276C\255%>\337\373J>\026\247\344\274 s\324\275\325g\237<\000\337\202\275V7\340\275\214#\337\275\267)\222\274\200^c\275t\024\021>\312O\004\274\2008\230>\277\326N=.\221\323\275\313L\203<\303\363\032=C\227\342\274_\222s>\262\236\236\275\206\254v>\271V\361=\242\244P>\206X\352\274\220\344\350\275\261\235N>m\277\315=/d\035=\375\266\025\276.YU=\2415\004\274[p\344<\274E\366\274\240\303N>\266\304<\276B\374\230\275\316\004\362\275\346I>\275&\273\016:\313\225.\276=z\237\275\3416g\275\304j\377\275\374G(\274\263:\200><\302N>\341\177t\274\372\330\223\276\217v>\276\377\202\221<,C\252>\276J\010>If\242\273a\304\372=\220\262S>\214\032s=\356\314\">\350\225\276\275\366\322\'>T\247$\275@f\327=\217X\312\274!{\256=\372q\202>\025EY=\002H\035<zr-\276\263Z&\276\262\275\237<wn]\275IH\013\276\267\247\030=N\300/=\315\r\244=\"\262}=\355tk>?\236\024\276iU\303\275\241\2141\276\355\374\004\276\236\272\273=\366pq\276\r\177\014>\242v\014=\010\204\270=[\r/\276\356\3361:\034\2069\275\360uh=\271\203\365=\214\231H\276\361\317\270=\341\006\237>\306\356\005\276\037\235\263\275.$\210\275\343\037\251\275\271\333\247\274\'.s\276t\214\033>\302\370\224=\274\263\301=\325\331\252>\rd\343=\247\220\274:\016$t=\23779=\236\245\025\275#w\243\276f%\220\276*\300\007=\007\325P\276\020\031)\276jE\221\2753\375\352\275\271L\031\275\002*\002\276u\2116>\211\217\273\274\375\242\022\275\017\334\267=L!\231\275\205\037m>\213Q\331\275\337\277\351=\345YN>\337\263\306\275M\004\351\275 r\346\275\n\221+\276\261|\023\276f\343\347\274f\263\314=5g\325=\2767\352\275\305\217\255\274\032\220M\276\200\3040\2762\347\200>\005K\033\276N\327d>\245\243S=\244\000\242<\201\335\206\276\363\237w\276M\211\342\275\347\346J>\374E\257=*)m\276r\0356\2752f\203\275vm\'>DrM=O\037s:G\335&\276\264YO>lY\032>x\307\244<Z\036\031>+L\277\274\212F\033\276\375\252\031>\230Rc>\374\257\306\275\256\272\251=P\010N=\315\'\260<\347Q\214>\022\232\206<\343\264\206\276\373\022u>\357r+\276\242\247Y>\234\306\330=r\233\022>v\350\001\275\230\006t>\270>5\276\2375\351\275\240\250D\276\006\253\316>bc\201<\274\017\035\276\225\220\240=+n\371\274?;`>\364\025D>6*\377\274_\276\215\276\037\212\217>^p\357\275\276\001\016>\345\232\316=\342\352\254=\350\010\365<\3171%>\2655U\276\205\020\032>\036V\031\276\226Ak>\322>=\275WM\271\275J\345$=G\355v\276D\241\002\275G7E\275b\215\370=\206\206\312<\305\300u=z\2455<\016\250\203=\224\004x=+\0335>\322K\204>\302^+\276\336\346\200=\216(U\275\255\364w>\226\336\033\275O\022\244>\365K\200>\244\304D\276\252\\\222\275\231`\366\274y7\267=\333\003\026>\033E\020>d\324\242\276\361r\230\276]\247\373\275\346\242\000>t\352\237=\377\365\331=\267\251\024\276l\240\247\276\342u\224\275G\"w\275\250,f\276\262\223\325;\000\214v\276Y6\037;\r\026\276=\223\362\004\275\315\311P\276\240\257<=$\2137=_\374\224\275C\256\216\276\344\302,\276\304\320}\275\ts\250\276Ga-\276\031\003\007\276\021{{\276\337\3346<B$U>\377\303?\2768\221\271>\215\254Z\275=\'#\2765\307}>\277\223)>\312\226`>\002C\211>x_\346=\332\220L\276\247\336\026\275\272\307#\274\344\302X=\242\307\277>\303\253\004>\201\005\365\275\205\362\226<\203\200\020\276\326+\372=\'\027\321=o\342\243\275H\233\034=\247+\201\276\237\013\006>8\021\265\274\037\272\301>\233\267\260>\216\0103\276\345\316B\276W/\361<\333\261->\242N\"\276\325(K>+\213 >\324\235\273<\257\000\001=\000fm\273S\311|=\276\302\321\275W\373\364=\231;=\276\307\026!=\346c\224\274\330uA\276O\341\264\276\037/\256>\236\351Q\275\234\272\344\275\177\220t>\257\374\022\276\014{e\274\344\265\367<V\350i=\322\217\253\274\034\351\207=\035\037\234>a\035\304\273r9\253=F\216R\275\247\377\032>\255\025\247\275\255F\330<l\350\333\275_\232\257\275\003\257\240>\034\356\223\275+\205P\276\024\362\271\276\2553\270\276k\003\362\275\346nF\275V\260\202\275\365C]>\361\0130>\t9\227\275\330x\226\276~ap=U\032+\276w\274:\276\000#\363\275\326\353\201>\224\311)\276>i\203=\257\252\341=\014;Z=\245\251\003\276\311X\032\275\025\206[>\t\364\\>\"\316\231=I\341\324\275iT7\276\341\217O>\025\270g<4h\323=\321I\361=\337\324\n>\256\241\246=\200\232\340=E\305\264\276\364.\206\276\33210\276ry\262=j\316\312\275\200-\033\2751\330i>\021a\002\275\032\\6>V\216\221>#\210\276\276\'r\006\276X,\335\275\313\337\235>\340\334\317\275J\305\326<\004\005N\276\310\020t\276Y\376~\276\276\337\306<o\033\226\276\305\214D>\356\\U\275\215\\\210\276e\327L\276\'\360\266=\247#\032=I]q>\352\322\017=]7\322:a\\\340\275\030m4\276ySO<\004Y\235\275\3220[=\346\007\224<G\354H=\332_\375=W\373\010\275\010\233<\275-\351\002>\230(\013=^m\003>{\270\007\276|U0<k\231\253>\227\335w\274\267\306\227\275\350\324i\275s\270b\276<\036\244\276\204{\013>\375\032\342<\026\311G\275n\217\211>i\250\201>0M\200>5?\207\276P\324\257\276\233\214\035>)C\352\275\257+^\276k\302\206>\214\317\004\276\016eN>\202-\343=\303\366[>\207n\214>\373e\242\274\001IH\276\035\363\021\276\303\203\276\275qG\225>}\004\\\276\347\357\373\274[\204\271\275\205\312\225\276\346z$\276\"\307q\276\022\270\305<\26726\276\223$\033\276\337]\361=\351vE>\235\036\214\274\243:\313\275 \255\342\275n\350\265\276g{\203;X\345\316=\352\327;\276\031\342\026?\3419\212<\352\301\312\2763\037q>\301\330\002\276x\261\255\272\231\013\021>-5\260\274\212\231l>\315eA\274\274\375(\276\006\214\213>\362]\323\276\344\327\262=]\270\205\276\376\253\324<\234)(\276\177a\234\274\206\n#<\n\2234\276\006\242\210\276\363\'\372\276E\227j;\263\371\203\276cOQ>-\226\025\276w\030]\273\321S\360\275sp\252\274\265A\230>[\200T\274y\275\277\271o\231\303>\202\352\263=\227(\034\276\346jF>=3n<z\235P<\014\013N>{\311\373>Y\214F\276\326\245]\275\210\216\201>\243\342\336>\244f\333\276\223\260\002<\365\352\317;\372\272\025\276X\341\220>\215\216\022>\356\336y\2761Y\252:,0\344>k\361\336=\253\022\177<NV\212\276Mp\205>J\236\001>F\361\365\275\240\367\240\276\325@\256>\353\220\356=\250\244\343\274\355:[;\t@\350=\234h\320=V&\023\275s\\\220>\032\231\326\275\227\366\336\275b\302\231\275\312\220\212>\221\033\247>g\342\235\274Ke\324\275X<\343>\264\272\261\276\251\376\000>\027\362\302\276\217\017\255>\266\343\202\276\366\030\342\275\356\321\363\274\321\253\310\276Z\005\\\276\252\004\307\276\331\3353>A\276\013>\035)}>f\332\016\276\034\370\017\276\'\355\300=\001\330\237\275\035\316@>\034\213\035\276\370\231\021>\035\205\256>\2463\355=R\317\r\273\210\235L\275j\250(\276\01456>\237lE\274\304W\030\276Y\006t>\364J\217\275\350\314\262\276?l\006>\225;K\276W\020\\\276\347\251\250\274\032 \237=\372d}\275D\371J=\363\266k>\307\337\226\276\222#\034>3O~<\306\305V\274g@\224=\333\223K\276x\250N\276\273\211D>L)#\276E\320\022>^\034+=t5H\276^\212\324=\262\177\212<\346\337\317\275DB\242\275\205\311*\276\247n\033\276\204\013\002>\312\006k\276]\254s;\256\037D\276\032\217\244<\312\347\221\276\352\333Q\274\0346\254\275 \261X\2758\025\002>\320*+\276x\314I\276?\260:\275\223\317\312=\306\327\277\276\3115\333\275\202\234P\276QC\221>\330\360\036\276\230G\254\276@o\215\275j\210\n\276\213\204\027\276Y\010\033<\301\014\201\275\222\233\r\276(wE=\255\300\202\275|qA\276>\212\216\275\216\360\226\275U{\231\275\025\206\257\276h\002L>\203rC>\234\2215\275sUL\276\356\017\352\275\033\226-\276\322\344\374<\2343\367\2756\213\t\276\360o\326<d\223.> \255\002>\000;\245>\n\276\275>\227\020{\275\276\210\">5\313\315<\313\327\211>\305H\211\276{\321H=)\320\250>\351Nx\276ype\275\250\2027=\303b\210=\264\242\365=\235\266\244<hph>>Pf\276\225\2541\276]\0037\275\337o\013\275\203LH\276\202\271\345>\207:\234=h\240\201>\300VW\2769}\363=V1\374\275\220\371\370=\376\351t>\3709\332=8S\014>\305d\365<=\3066\276|\205\376\276\244\236q>\272\336\276\276\305\351\257>\217DF>r\"\270\272\323n]\276}\341\232\275\002?\276;\'\027\003;\010#\343=\260\352S\276\250\242\367=\304\017W>\224\206\034>\034Sw\274#\201\273<$\254\320\275\337\365d\275\034\244\334=}[w\276\224\033\310\274*\016:\275F\365D\276\021\311\005>\221\326\243=7\227\335\275\226[\023\276\n\222=>\311S=\276\030,9\276 \3035>\232\227A\276\023\021\273\275\335\264\227<\346\253\351\275\260\320<>\361p\353=A_U\276\275l\245\275\361\021\271>m\033\206;?\375F>\306\337\245\276\024$\243\276:\270\336\275\337\310\226>R\203H\276\311S\276\275\023\305]=\2646\350\275K\2308\275\017CU>\212w\231=$\177\200>\273O6\276A\343\315\275\263\030c<\'\277\021\275\006\207\202\27612X>\210\343\254\276\t\303\334\274W\366Q\2742-\224\2769W\010\276`\002\036\275ZE\016>+\324\033\276d\226\311\274\000\216\212\276xo\312=W\300\245=K\272V\276d=\335=\023\023\305\2757\016<\276\220K\317=F\022V=\021s\325\2740~\006>t\270\205\276\014\325\347<2\256\207>\326\372\224>yu\032\276\222\232\252\276\251\372W=\364M\356=A\n\265\274\253.\342=\217\374\323\2755\226\260\275a\351\207>]\272\213\275\'\273\252=\314\274\203=\014b\327=\231{\212=%\014\032>/Y\272\274\344\215M<~\001i=w\306\302\275\255(\033>\247\332\214\275{\355-\276\021=\315\275\226\247H>_-%\276\253\351\221<\350\205\332\275\260k\221\276pBO\276\026r0\276\036\312\204>\312|\007>\223}!>\373\211\224>\377Z\027>\212\225,\276\\\366\315=\275\341w\275\303\247\235<\261\0056>\'\272\003\276\345\024\201\275\330t\017>\324\350\256\275\347K==U\276\222\276\370\243\215>\2574.=\036Q\003=E\200:\276A\364\227\273+XR\275\321\373\336\275\254\005\003>\307\023\n>\243\000\265>\310\006\212\275"
      }
    }
  }
}
node {
  name: "sequential/lstm_1/Read/ReadVariableOp"
  op: "Identity"
  input: "sequential/lstm_1/Read/ReadVariableOp/resource"
  attr {
    key: "T"
    value {
      type: DT_FLOAT
    }
  }
}
node {
  name: "sequential/lstm_1/Identity"
  op: "Identity"
  input: "sequential/lstm_1/Read/ReadVariableOp"
  attr {
    key: "T"
    value {
      type: DT_FLOAT
    }
  }
}
node {
  name: "Func/sequential/lstm_1/PartitionedCall/input/_3"
  op: "Identity"
  input: "sequential/lstm_1/Identity"
  attr {
    key: "T"
    value {
      type: DT_FLOAT
    }
  }
}
node {
  name: "sequential/lstm_1/PartitionedCall/while/enter/_21"
  op: "Enter"
  input: "Func/sequential/lstm_1/PartitionedCall/input/_3"
  attr {
    key: "T"
    value {
      type: DT_FLOAT
    }
  }
  attr {
    key: "frame_name"
    value {
      s: "sequential/lstm_1/PartitionedCall/while"
    }
  }
  attr {
    key: "is_constant"
    value {
      b: false
    }
  }
  attr {
    key: "parallel_iterations"
    value {
      i: 32
    }
  }
}
node {
  name: "unused_control_flow_input_16"
  op: "Placeholder"
  attr {
    key: "dtype"
    value {
      type: DT_FLOAT
    }
  }
  attr {
    key: "shape"
    value {
      shape {
        unknown_rank: true
      }
    }
  }
}
node {
  name: "Func/sequential/lstm_1/PartitionedCall/while/body/_12/output/_104"
  op: "Identity"
  input: "Func/sequential/lstm_1/PartitionedCall/while/body/_12/input/_93"
  attr {
    key: "T"
    value {
      type: DT_FLOAT
    }
  }
}
node {
  name: "sequential/lstm_1/PartitionedCall/while/next_iteration/_68"
  op: "NextIteration"
  input: "Func/sequential/lstm_1/PartitionedCall/while/body/_12/output/_104"
  input: "^Func/sequential/lstm_1/PartitionedCall/while/body/_12/output_control_node/_107"
  attr {
    key: "T"
    value {
      type: DT_FLOAT
    }
  }
}
node {
  name: "sequential/lstm_1/PartitionedCall/while/merge/_32"
  op: "Merge"
  input: "sequential/lstm_1/PartitionedCall/while/enter/_21"
  input: "sequential/lstm_1/PartitionedCall/while/next_iteration/_68"
  attr {
    key: "N"
    value {
      i: 2
    }
  }
  attr {
    key: "T"
    value {
      type: DT_FLOAT
    }
  }
}
node {
  name: "sequential/lstm_1/PartitionedCall/while/Func/sequential/lstm_1/PartitionedCall/input/_3_switch/_44"
  op: "Switch"
  input: "sequential/lstm_1/PartitionedCall/while/merge/_32"
  input: "sequential/lstm_1/PartitionedCall/while/LoopCond/_35"
  attr {
    key: "T"
    value {
      type: DT_FLOAT
    }
  }
}
node {
  name: "Func/sequential/lstm_1/PartitionedCall/while/body/_12/input/_93"
  op: "Identity"
  input: "sequential/lstm_1/PartitionedCall/while/Func/sequential/lstm_1/PartitionedCall/input/_3_switch/_44:1"
  input: "^Func/sequential/lstm_1/PartitionedCall/while/body/_12/input_control_node/_84"
  attr {
    key: "T"
    value {
      type: DT_FLOAT
    }
  }
}
node {
  name: "sequential/lstm_1/PartitionedCall/TensorArrayUnstack/TensorListFromTensor/element_shape"
  op: "Const"
  attr {
    key: "dtype"
    value {
      type: DT_INT32
    }
  }
  attr {
    key: "value"
    value {
      tensor {
        dtype: DT_INT32
        tensor_shape {
          dim {
            size: 2
          }
        }
        tensor_content: "\377\377\377\377\t\000\000\000"
      }
    }
  }
}
node {
  name: "unused_control_flow_input_17"
  op: "Placeholder"
  attr {
    key: "dtype"
    value {
      type: DT_FLOAT
    }
  }
  attr {
    key: "shape"
    value {
      shape {
        dim {
          size: 100
        }
        dim {
          size: -1
        }
        dim {
          size: 9
        }
      }
    }
  }
}
node {
  name: "sequential/lstm_1/PartitionedCall/TensorArrayUnstack/TensorListFromTensor"
  op: "TensorListFromTensor"
  input: "sequential/lstm_1/PartitionedCall/transpose"
  input: "sequential/lstm_1/PartitionedCall/TensorArrayUnstack/TensorListFromTensor/element_shape"
  attr {
    key: "element_dtype"
    value {
      type: DT_FLOAT
    }
  }
  attr {
    key: "shape_type"
    value {
      type: DT_INT32
    }
  }
}
node {
  name: "sequential/lstm_1/PartitionedCall/while/enter/_20"
  op: "Enter"
  input: "sequential/lstm_1/PartitionedCall/TensorArrayUnstack/TensorListFromTensor"
  attr {
    key: "T"
    value {
      type: DT_VARIANT
    }
  }
  attr {
    key: "frame_name"
    value {
      s: "sequential/lstm_1/PartitionedCall/while"
    }
  }
  attr {
    key: "is_constant"
    value {
      b: false
    }
  }
  attr {
    key: "parallel_iterations"
    value {
      i: 32
    }
  }
}
node {
  name: "unused_control_flow_input_18"
  op: "Placeholder"
  attr {
    key: "dtype"
    value {
      type: DT_VARIANT
    }
  }
  attr {
    key: "shape"
    value {
      shape {
        unknown_rank: true
      }
    }
  }
}
node {
  name: "Func/sequential/lstm_1/PartitionedCall/while/body/_12/output/_103"
  op: "Identity"
  input: "Func/sequential/lstm_1/PartitionedCall/while/body/_12/input/_92"
  attr {
    key: "T"
    value {
      type: DT_VARIANT
    }
  }
}
node {
  name: "sequential/lstm_1/PartitionedCall/while/next_iteration/_67"
  op: "NextIteration"
  input: "Func/sequential/lstm_1/PartitionedCall/while/body/_12/output/_103"
  input: "^Func/sequential/lstm_1/PartitionedCall/while/body/_12/output_control_node/_107"
  attr {
    key: "T"
    value {
      type: DT_VARIANT
    }
  }
}
node {
  name: "sequential/lstm_1/PartitionedCall/while/merge/_31"
  op: "Merge"
  input: "sequential/lstm_1/PartitionedCall/while/enter/_20"
  input: "sequential/lstm_1/PartitionedCall/while/next_iteration/_67"
  attr {
    key: "N"
    value {
      i: 2
    }
  }
  attr {
    key: "T"
    value {
      type: DT_VARIANT
    }
  }
}
node {
  name: "sequential/lstm_1/PartitionedCall/while/sequential/lstm_1/PartitionedCall/TensorArrayUnstack/TensorListFromTensor_switch/_43"
  op: "Switch"
  input: "sequential/lstm_1/PartitionedCall/while/merge/_31"
  input: "sequential/lstm_1/PartitionedCall/while/LoopCond/_35"
  attr {
    key: "T"
    value {
      type: DT_VARIANT
    }
  }
}
node {
  name: "Func/sequential/lstm_1/PartitionedCall/while/body/_12/input/_92"
  op: "Identity"
  input: "sequential/lstm_1/PartitionedCall/while/sequential/lstm_1/PartitionedCall/TensorArrayUnstack/TensorListFromTensor_switch/_43:1"
  input: "^Func/sequential/lstm_1/PartitionedCall/while/body/_12/input_control_node/_84"
  attr {
    key: "T"
    value {
      type: DT_VARIANT
    }
  }
}
node {
  name: "sequential/lstm_1/PartitionedCall/while/body/_12/while/split/split_dim"
  op: "Const"
  input: "^Func/sequential/lstm_1/PartitionedCall/while/body/_12/input_control_node/_84"
  attr {
    key: "dtype"
    value {
      type: DT_INT32
    }
  }
  attr {
    key: "value"
    value {
      tensor {
        dtype: DT_INT32
        tensor_shape {
        }
        int_val: 1
      }
    }
  }
}
node {
  name: "sequential/lstm_1/PartitionedCall/while/body/_12/while/TensorArrayV2Read/TensorListGetItem/element_shape"
  op: "Const"
  input: "^Func/sequential/lstm_1/PartitionedCall/while/body/_12/input_control_node/_84"
  attr {
    key: "dtype"
    value {
      type: DT_INT32
    }
  }
  attr {
    key: "value"
    value {
      tensor {
        dtype: DT_INT32
        tensor_shape {
          dim {
            size: 2
          }
        }
        tensor_content: "\377\377\377\377\t\000\000\000"
      }
    }
  }
}
node {
  name: "sequential/lstm_1/PartitionedCall/while/body/_12/while/TensorArrayV2Read/TensorListGetItem"
  op: "TensorListGetItem"
  input: "Func/sequential/lstm_1/PartitionedCall/while/body/_12/input/_92"
  input: "Func/sequential/lstm_1/PartitionedCall/while/body/_12/input/_87"
  input: "sequential/lstm_1/PartitionedCall/while/body/_12/while/TensorArrayV2Read/TensorListGetItem/element_shape"
  attr {
    key: "element_dtype"
    value {
      type: DT_FLOAT
    }
  }
}
node {
  name: "sequential/lstm_1/PartitionedCall/while/body/_12/while/MatMul"
  op: "MatMul"
  input: "sequential/lstm_1/PartitionedCall/while/body/_12/while/TensorArrayV2Read/TensorListGetItem"
  input: "Func/sequential/lstm_1/PartitionedCall/while/body/_12/input/_93"
  attr {
    key: "T"
    value {
      type: DT_FLOAT
    }
  }
  attr {
    key: "transpose_a"
    value {
      b: false
    }
  }
  attr {
    key: "transpose_b"
    value {
      b: false
    }
  }
}
node {
  name: "sequential/lstm_1/zeros/packed/1"
  op: "Const"
  attr {
    key: "dtype"
    value {
      type: DT_INT32
    }
  }
  attr {
    key: "value"
    value {
      tensor {
        dtype: DT_INT32
        tensor_shape {
        }
        int_val: 32
      }
    }
  }
}
node {
  name: "sequential/lstm_1/zeros/packed"
  op: "Pack"
  input: "sequential/lstm_1/strided_slice"
  input: "sequential/lstm_1/zeros/packed/1"
  attr {
    key: "N"
    value {
      i: 2
    }
  }
  attr {
    key: "T"
    value {
      type: DT_INT32
    }
  }
  attr {
    key: "axis"
    value {
      i: 0
    }
  }
}
node {
  name: "sequential/lstm_1/zeros/Const"
  op: "Const"
  attr {
    key: "dtype"
    value {
      type: DT_FLOAT
    }
  }
  attr {
    key: "value"
    value {
      tensor {
        dtype: DT_FLOAT
        tensor_shape {
        }
        float_val: 0.0
      }
    }
  }
}
node {
  name: "sequential/lstm_1/zeros"
  op: "Fill"
  input: "sequential/lstm_1/zeros/packed"
  input: "sequential/lstm_1/zeros/Const"
  attr {
    key: "T"
    value {
      type: DT_FLOAT
    }
  }
  attr {
    key: "index_type"
    value {
      type: DT_INT32
    }
  }
}
node {
  name: "Func/sequential/lstm_1/PartitionedCall/input/_1"
  op: "Identity"
  input: "sequential/lstm_1/zeros"
  attr {
    key: "T"
    value {
      type: DT_FLOAT
    }
  }
}
node {
  name: "sequential/lstm_1/PartitionedCall/while/enter/_17"
  op: "Enter"
  input: "Func/sequential/lstm_1/PartitionedCall/input/_1"
  attr {
    key: "T"
    value {
      type: DT_FLOAT
    }
  }
  attr {
    key: "frame_name"
    value {
      s: "sequential/lstm_1/PartitionedCall/while"
    }
  }
  attr {
    key: "is_constant"
    value {
      b: false
    }
  }
  attr {
    key: "parallel_iterations"
    value {
      i: 32
    }
  }
}
node {
  name: "unused_control_flow_input_19"
  op: "Placeholder"
  attr {
    key: "dtype"
    value {
      type: DT_FLOAT
    }
  }
  attr {
    key: "shape"
    value {
      shape {
        unknown_rank: true
      }
    }
  }
}
node {
  name: "sequential/lstm_1/PartitionedCall/while/body/_12/while/Identity_4"
  op: "Identity"
  input: "sequential/lstm_1/PartitionedCall/while/body/_12/while/mul_2"
  attr {
    key: "T"
    value {
      type: DT_FLOAT
    }
  }
}
node {
  name: "Func/sequential/lstm_1/PartitionedCall/while/body/_12/output/_100"
  op: "Identity"
  input: "sequential/lstm_1/PartitionedCall/while/body/_12/while/Identity_4"
  attr {
    key: "T"
    value {
